111101100000000011110100111110111111110011111001111110110000011011111001
000010010000001100001000000001000000011100000000000001110000101100001011
111110001111010000000100111011111110100011110100000001000000100000001010
111111001111010000001000111110101111101111101011000010100000000011101110
000010010000100111111011000001110000000011111111000000010000011100000101
111111011111111111111111000001011111100111111011000001011111110111111101
111100111110011011111000111001101111000011110011111101101111010011111001
111010011110100111110000000001110000000000000001000100000001011100010000
000100000000010111111100111011001111110000000100111010110000100000100110
111110000000001100000010111110110000001011111011000001011111101100000010
111111111111000111100101000000101111111011110111111011001111101111111110
000000100000011011110111000001010000001011111011111111110000011000001010
111111011110111011110100111110011111010111110111000000100000111100000100
111111000000000000000100111100111111110111111011111101100000110000001110
000010110000110100001111000000100000001111111011111111010000010011110100
000000010000100100001010111110111110100111101110000100110001000000001000
111111001111011011111001000010100000010100001100000011000001000000001111
000000101110111011101100000011110000001011110000111101000000000100000010
111111001111100111100011000000100000001111111001111100111111110100001111
000101110000001011111000000010000000010000001100111011110000100100010111
111000011111011111111100111100001111011000000100000001110001101000000001
111101001111100100000001111111111111000111100101000000100000001100001111
000001110000010000000111000010110000111100001000000000000000000000000011
111111011111111111111100111111010000000111111011111110100000010111111011
111011001111111100000001000000110000010100001010111110110000110000010011
111100011111001111110101111100101111010000000101110111001111000000001000
111010001110110011110011000010010000011100000011000001010000101100100000
111000111110101011101111111010001110110111011101000100010000111011101000
000010010000000100000001111111101111100011111010111110001111101111110110
000010110000010011110101000010000000100000010001111011100001000000100100
000010101111101111110010000000110000011100000101111111111111011100010000
111010001111110011111000111101100000000011111110111111000000101000001000
000000101111110011111110111111010000010011111010111111001111100100000001
000000101111000111111010111110111111011111110111000100001111101111110111
000001011111011011111101000000011111111000000010000011011111110011111001
111010010000000011101100000010110000100111111110000001110011010100111101
111101001111001111101000111110101111111011110111000110110010000000000111
000010011111010000000001111010011111110100001000111100110000111100100011
000001000000100011111000111111000000100000000101111111011111100100000000
000000100000011000000101111111011111011111111111111110100000010111110010
000000001111111000001010000000000000010011111010000001101111100111111011
111000111110110011110110111100001111010111101101000010101111101000000100
111110011111100011111011111111100000001011111101000010000000010100000110
000001010000001011111011111111010000100100000111000010011111110100001111
110101001101100111101001111101001110111111100101111110011111011011111011
000000100000001100001110000000000000100111111110000001000000100000001110
111011111111110011110101111111110000001100000001000001000001110000011100
111110101111101111101001111100111110110011100110000001110000000011111000
111011101111000011011101111110011111011011110111111101100000010000000011
111011001110100111110111111111111111011111110100111011111111110111110010
000010010000010100001000000000100000011000000001000011010000101100001010
000010100000101000000000111010111110111011111000111111001111001011111110
111011110000011000000000111100111111110011111111000011100001011011111111
000010111111011011100110111110001111010011110101111101111111011000000111
111010011110100111111111111100011110010011110101111101001110110111110011
000010101111010111001111000000100000001000001011111111000001010000001110
111001011110011111111010111110001111100100001000111011101110111000001001
000001010000011011111111000001000000010100001000111110111111100011111010
111110101111011111110010111100111111100011111010111110111111110100010100
111101001111001100000110000001001111100000000001000000101111011100000111
111111110000000000001111111101101111011111111011000000011111101111110101
000010001111111011110100000010001111111000000011000001100000111000000011
111101001110110011010010000101100000011111101010000010010001010000001100
111000101101111011100011111000011110000111101001001000110011010000101100
000000011111011111110101111111010000001011111110000000110000010011111011
111111110000011000000010111101101111111100000101111101001111111011111100
000010010001001100001110000000100000100000000101000000000000101011111001
111111000000001011111110000001010000010100001001111010101111111011111011
111110010000100011111010000000101111101000000111111111101111110100000111
111101110000001000000000000000001111110000000000111110011111011111111000
111011010000010000000110111111010000011100001000111100101110011111110010
000101010000111000011001000011101111110011111011000010011111011111111101
111101011111010100000101000101000000101111111011000100001111001011101011
000000100000001011111001111111001111101111111100000000001111101100000111
000010000000111111111100111100110000001111110111111111101111110111111010
000000010000011100000111000000000000011100001001111111111111101100000000
000000010000000011110111000000011111110011111101000011011111111000001101
111011001111101100000010111101111111110100000010111011101111011111101011
000010000000011011111111111111111111110000000101000001010000001100000010
000100010011000100100010111111101111100000001010111110011111101111110101
111101010001100100010000111001000000001011111110111011111111010011101111
111101000000100111111101111001111111101000000101111100000000001100000001
000001010000001011111011111101110000101000000100111111101111011100000011
111101111111111000000110000010100000001111111011000101011111010011110110
000001000010000100110100000001010001100100100100111110111111010111101110
000001000001000000010101111111101111010011111011000000110000011011110100
111111101111101111111001111110101111101100001000000001010000011011111010
000000011111110011111011000000100000101000000000111111111111111100000010
111010101110100111110100111111110000101011111011111111110001000000000001
111100111111101100000001111101010000011000000000000010110000000111110111
000010100001001100001111000000111111011111011110000000111110110011100001
111111110000011000001001000001000000110000010001000001000000100111110110
000001001111111111111111111111010000101000000100000010010000100000000100
000001111111101011111110111101111111011111111110000010010000000011100100
000010100000111000001011111101110000001111111011000000011111100111110110
000010010000100100000011000000110000010000000111111110011111101111111000
000000000000010011110101111111001111101100000010000001001111111100001000
111000111110110011110010111101010001110100001011000001100001011100001011
111101100000000100000101111110101111111100000010111110100000000100001001
000101111111110000010111000010100000011111111110111100111110111011110100
000011110001101100011001000010001111111000001001000000101111100111101000
111101001111111100000010000001000000000111110101000100101111111011111111
111101110000100011111010111110101111111011111111111110001111101000000001
111110100000001100000100000001110001000100010011111111001111100100000010
111101100000011000001000111110010000000000000011111111011111010111110111
111000111111100000001001111101100000111100001110000011001111101100001000
111011000000000100000101111100100000111100001100000010000000011111111000
000001011111111100000011111110010000000100000010111101111111110100000101
111111000000100100001101000000010000001111111111111100001111100111111110
000011011111100011111110000000011111000011110010111111110000001111110111
001001000001101100011010000101010000101100001001111101101110111111100011
000001000000101011111101111111010000001011101110000011001111101100001000
000000010000000011111111111110000000010111110111000011100000111011111111
000001010000001011111000000010001111111100001101111110011111111111111000
111110011111101100000110111011010001111000010011000000111111011011110001
000110100000110100011100000110010001010100010111111111001111101111111011
111110000001000100011000111110010000110100010000000000101111100111110111
111111001111110111111001000000010000111111111101000000000000000011110110
111010111111100111110010111011111111111100000010111111110000101011111111
000000110000100011111101111111110000110111111000111111011111001011110111
111101001111110011111100000000001111111011110101111111011111011111101101
000010000001001000000101000000010000000000000101000001101111110011110110
000001001111100100000101111010110000011011111111000000001111101011110000
000001100000001111111010000010101111111100000000000001001111110000000111
000011100001011100000101000001110000011111111011111101010000001111111101
111111010000010000000011000000111111111111111011000001101111110111111111
000010111111101111111111111101101111011011110100000011100000001011111011
001010100010011101000001000111110001000000010011000001001110110011100001
000001010000001011111011000001000000010000000100000001010000010000000111
111110101111100011110111000001010000010100000010000010101111111100001001
000001110000100111110001000101000000100011111101000100000010001100010011
111110101111110011101001000010011111110000000111000001110000100100010110
000001001111111000000100000001111111101111111011111111001111101100001011
000001000000010000000100111110111111100111111010000000101111111000001101
000001111110101011111001111110001111101000000011000000010000111111111101
111001011110000111101110111001000000000000000111110111001110111000000100
000000010000111000000101000010100001001011111111111011001111110111101110
111111101111100000000101111110010000000100000110000001010000001000000000
000100010000100011111011000011011111100000000110000001101111011011110111
111101111110111111110010111101010000100100000101111100111111110111111000
000100110001001100000011000001000000001000000111000011100001010100010011
000000011111001111100110111101111111110111101011111110010000000111110010
000000000000001011111000111111011111101000000101000011010000111000001010
111100010000111100101000111100010000110011111110000001110001101000110110
111010111110101000000001111011111111000011110110111011011111100111101101
111101100001000000100000111100111111111011111110111000111110100111101110
000001000000001000000101111111111111100100001111000010000000001000000000
000000111111111100001000000010010000011111111111000001100000001000000011
110011111110001111101011111101010000011000011101111101110001010100011000
111101100001110000110001111111100000011100001000111111110001000000011111
000010000000011100001101000001110000011111111101000001101111110111111000
000001001111101000001000000001000000000100000100000010001111110011111111
111101001110011011100010111100010000000000000110111100001110111000001110
000100111111110100000111000110001111111000000011000010100001011000010011
111110001111000100000011111011001111101100001000111010001111111000000001
110111011101100111110100111011110000010011110100111100000000001100100000
000000010001000100001010111111010000110000000111000001110000010000000101
111111010001000100000010111011000000100000000000111110110001001000001010
111110010000100000000110111100100000001000001001000001101111111011110110
111110000000001011111001000000010000010111101101111111110000111011110100
111110010000010000000011000000110000011111111110000001011111111000000111
111011101111000011100001111011001111111000001000111110110000001111111100
111011010000000011111001000010111111100111111000111110000000011100000001
111010011111011100000100110110110010000000001000111010110001101000000001
111000101110000111110101111101101111110000001101110110110000001111110010
111101100000001011111100000000110000001011111111111011101111101000000111
000001111111111011111011000010101111100000001111000100110000100100010111
110110111110100011111010111110010000100100010001111101110001000000001100
111110011111100011110110000001101111110111110101111111000000010000000100
111010001110011111101100111110101111100100000010111011100000000111111011
000001111111110111110000000010000000100011111011000000010000000100000010
000000000000010100001111000001100000010100001010000011100000011011111000
111110101110010100000010000000110000010000010000111110110000110000000011
111111000000110000000011000000110000110000001011000100000010001000100011
110011011110001011100110110110111111011000001010111001110000101000011011
000011110000111100010001000101010000110000001000000001010000001000010011
000111110010001100010110000010010000111100011000000011000000001100001001
111111000001000111111100111111000001110011111000000011000001010011111010
110101111110000011100110111111100000101000100101000011100001110100011010
111000101111010011110000111100110001110111110010000001000011001000101010
110110111101100111101101111100000001000100100101000011000000111000011100
111110100001000000000110000011001111111111110100111100100000000011100101
000010010001000011110101000000110000100100010000000011110000011100010111
000101111111110100001011000101001111111100011111000110101111100011111110
000001101111011011101000000001111111101100000100111110110000011111111111
000000011111011100000000000000101111100100000011000000000000101011111110
111001000000001100001011111100100000101100001101111011100000011011111101
000010001111011111101111000001010000001111101101000100000000110100001000
000000011111100111110010000001110000001011111100000110100000111000010000
000010000000011000001010000001110000011100001010000000110000000011110110
001010000001101000001101000001110001011000100101000010111111011111110010
110101011110111111101110111011010000001100010111110110110001000100011001
111110110000010111111100000001110000001100000100111110111111101100000101
111100110000001111111110111110100000100000000000000000100000010000001111
111011101111111111110101000000110001000000000110111101011111111100000000
000000001111100011110111111111110000010111110010111100111111110000000000
111111100000000100000001111101001111011000000010111111100000000000001011
111101001111010100000001111011101111110100000100111100111111110111111101
111010001111011100000000111100010000001011111100000000100000101100010000
000010100000000111110101000101000000000000001000111110110000001000000100
000001010000010000000000000010001111001111110011000101111111001111100110
111111100000000011111110000000001111100000000101111110101111101100000010
111111001110111111111101111110011111111000001011111100101111100011110011
000001111111101000000111000000101111110111101111111101000000110100000000
111110110000101111111010000001000000010100001001111011111111000111111010
111001001111010100001101111110110000100000001000111111000000001100000110
111110111111110111110100000000100000101000001000000001000000100000001001
000001010000000111101001000010000001100100001000111110000000110000010001
111010101111001111111111111010101111101100001010111010110000001000000000
111001111110110111110100110110001111001000010010000001100000101100000001
111110001111000000000011111011101111101000000100111100010000010111101111
000001110000010100000010111100011110101011101110000001101111010111111000
000001010000111011110110000100100001000000000100111111000001000000001111
000001010000101011101101000010000001010100011110111101110000000011111000
111110111111111100000101111110101111100100000010111110110000110000000111
000000111111111100000000000000011111100000000101000000001111101111111101
111100011111111011111000111110101111101111101110111101010000000011110110
110110111111110000000001111001000000011111110101111011010000010011111000
000000001111101111110110000000000000101100000111000000110000111111111000
000001111111110011101110000011010000001000000100000000001111111100010110
000010000000000111111000000001110000001000000110000001000000000111111010
000011010000100000010010000111100000110111111110000001111111101111011001
111101111111101111111000111010111111110000000110111111100000000000000000
111111100000011000001001000100010000011111111101000001100000100011110100
000001111111110011111000000001101111100000000111000001101111111011111100
111110010000100111111010111101001111101011110010110101111110110011110001
111111101111011011101100111110011110111011110000111101011111110111111011
000011011111101100100101000100010000111100100000111110100000001011101111
000100011111110000000011000000111111001100100011000100110000110000000000
111111011111100000001000000001111111100111111100111110001111101011110111
000001100000110011110110000001000000101000000011111110101111111100001010
000001100001000000000011000000101111111011111011000000010000100111111111
111110110000001100000000000010000000100111111100111101011111010011110101
111110010000100111111010111100111110111111101011111000111111011000001001
000000010000011111111110111101111110111011111001111110001111100100000001
111110000000000100011000111011001111110000000110000010110000110100000001
111101111111100011111010111110110000011000000101111111100000101000010000
000000000000110011111010000010100001001000010011111101101111000111110010
000101000000001100010011000011000000101000100000000011000001011000000010
111100101111100111110111111111000000011011111110111101011111000111111011
111100100000001011110101111110000000101100010111111011101111010000000011
000001011111101111111110000101100000101011111111000001110000010111110101
000000010000101100000000111100101111001111101111111010111111100111101110
111010111111000011110101000001110000111000001011000000100000110100000110
000001110000101111111101111101111111100011110101111001111111101000000101
000010100000000100001000000101000000000011110111000011001111010111100000
111111111111010011111110111111111111001011111110111010111111001011110100
111100000000100000010010111010111111010000010011111000111111100011110000
111101110000000000000000111011000000110000001010111011011111100000000001
111111110000011011111001000001100000011111111011111110110000010011111101
000010001111111100001100000000100000000000000000000101001111101111111110
000000000000000111111011000001001111111011110110111111111111100111111110
111111001111111111101100000000000000001011111010111101001111100011111111
111101001111111100001011111100011111011111110111111100110000000111110110
111011000000000011111011111100110001000000011101110111100000010111111010
000000110000100111110110000110010010100100100100000100010001010000101100
000001001111101111110110111111100000001011111001111101110000011011111100
111111110000100000001010000000010000000100000010000001010000011100001100
111100011111111111110100111000001110110111111011110110111110011111100010
000001110001011000001000111111111111011011110101111010111111000111110111
000001100000100111110100000001001111110111111111111111101111100000001000
111111100000000100000111000000111111110100001111111101101111111100001000
000001000000011100000000000011011111001011110111111110011111110111111011
001000110000110011110010000011001111000111101110000101011111010100010011
111001010000001011110001111110000000000011111110000010011111011111111111
000000111111100000000001111110101111111011111100000001000000000011111001
111010110000110100000110111110111111110011110100000010100001011000001000
000000111111110000000100000010110000100011110111000000111111111011110011
000000010000010011110110111110001110110111111010111100001110101111101001
001000000001010111110011000001100000011011111101111110001111000011111010
111110100000010100000000000010000000000100000000111101111110111011110000
000011010000010011111110111111001111010011111001111111010000001000011011
111111100001001011111101000011010000011100001010001000100001001000000111
111100000001000100001011000011110001010100001001001110100001111100100111
111101010000101000000101000010111111000111110101000111000001101100010000
111100000000001100000110111111000000010111111101000010000000101100000100
000011010000100000000000000000111110110011101001000010001111000000000011
000011110000101111110100111110011111100011111100000011000000110000011000
111101010000010111110011111101101111101000000000111100101111110011110000
111111001111111111111101111110001111111011111110000000011111110111111101
000001000000111100000000000110011111110011110001000101101111011111111010
111111000001010100001011000000000000111100000101111010010000100100000010
000001001111111111111100000010111111101111101110000100111111110100000001
001101100001011100001100000001000000111000000000111110001111111000010000
111110011111101011111111111111000000000100001000000010110001110100010011
111111100000100100011101000000000000111111111000001000010000100000001001
111111100000111011111101111110111111110111110011000001110000011100001100
000001111111010011110010000001100000000011111011111100111111101011111111
111101110000001011111010111110001111110011110010111110011111111100000011
000011010000100011110011000000111111001111010101111011111110010100000101
000001000000100100000010000010010000100100000110111100111111100100010000
000010001110111100001001110110111111011100001001000101100001010000001101
000101110000111011101110111101101110001111111110111100110000101100010111
000001100000111111110110000100010000111100001001000111100000100100000000
000000110000000000001010111101110000001000001110111101001111011011111101
000000101111110100001101000101101111110000001100000000011111110000000010
000100110000100011111101000001010000000111111001111101001111001011111010
000101100000000111110110000010101111010011011110111111111111010100000000
111101000000111011111001111010111110110011011011111010001111001100000011
111111001111100111110110000000111111000011111001000110010000010100001010
000001111111101111110101000100101111111011110011111110001111111100000011
000010110000010011111010111001011111010011111001111101101110110100000011
000000100000001111101111111011011101100100001110111100111110100100000010
111101111111101111101110111011011110011011101101111110101111110011111111
000000001111101111100101111100001111100111111010000001110001000000000011
000100001111001111110010111110001111101011111010111101011110010111111100
111101100000110000010011111101100000000011111110110111101110101000000011
000001101110101011111111000011001111010011110101110101001110100011110001
000011110001000000000010111010001110101011100100111110111111001000001101
111011101110110111101011000000011110111011110101111100111110111011110110
111110000001010100010110111101110000101111111010111010011110110011110101
000000110000001011111111111011111110110011011110111111100000010011101011
000011100001001111111110000010000000001000001010000000000000101000010000
111111011111101100001001111111110000011000000111111101011111101011111011
000001110001001000000011000010101111110011111100000110110001100100010100
111100101111000011110110111100001111100011111011110110101111010111011011
111011111111011100001100111011011111101011110101110111001101001011010100
000000000000000111111110000000001111111011111101000000000000100011110011
000100110000001011101100111000011110000111101101000011010010101000100100
000101100000111100000001111001111110100011111100000000000000000100011001
111110111111011111110110000001010000001111111001000001001111111111111011
111111000000010100000101111110111111111011111001111110101111110000000000
111110101111011100000110000000001111101111110001000000001111100011110111
111111101110100011110100000001111111011100000000000001100000001000000100
111111110000011011111110111111011111110100000100000000010000011011111010
000000001111111011111100000010001111101100000101000000000000100100000001
111101001110101011101111111110101111011011111011000101010001000100000011
000001011111001111100011000111010000111100000011000010010000010011111001
111111110000010011111101000000101111101011111000111011101111010011110111
111110101111100111111011000001111111101000000110111111110000011011111101
111111100000100111111101000100010000101011111000111110111111101111111000
000000000000011000001000111100011111001011111111111111000000000100000100
111111101111100000000001000000101111111000000010111111000000001000000101
000000111111010011110000111110011111101011110000000010010000111011110111
000001000000001111111101111110110000000011110110111110000000001111111111
111101001110011011110110000000010000001011110111000000001111010011111110
000010001111111011111011000111000001001100001100000010010000010100000011
000001111111111111111001000101000000100000000000000001011111100111110011
000011110000011011110001000010110000011100000110000000000000000011111100
111110000000001011111011000010100000000111111100111100011111100011110010
111101011111110011101110111110001111111100000110000000111111011000000011
111011011110110111111100000011000000001111111111000000101111011111110010
111111001111110111111000111110001111100011111110111110000000010111110101
000000001111011100000011000000010000001011111111000001110000010000000101
000011011111110111111110111010001111000111110100111110001111011100000010
111110111111001111110010111111010000010011111011111100100000100000000011
000000011111111011110110000101110001001100000101111110101111110011111001
111110101110000011101101000001010000001011110010000101110000100111110111
000000100000000100001000111111100000010111111110000000100000000011111001
111110011111101100000000000010111111101111110001111101001110101111111011
000011000000010100000000000100110000101011111100000010100000000100000001
111010010000011011111100111111110000000111111100111101111111101111110101
000000101111101100000000000000010000010111111101000001000000001111111010
111101010000000011111000111100101111011000000001000110110000011000001010
111111111111011000000010000011110000100000000010000011100000101100000111
000010100000101111110111000011100000010011100101111111101111001111101010
111110011111011011101011000101110001010011111011111111110000011111110010
000011100000010100000010111110101111011011110100111001101110100111101111
111101001111011000000101000001100000011000001000111110001111111011111111
111101101111111000000111111010111111010011110101000001000000010100000000
000001011111101000000001111111110000010000000010111111101111101011111111
111101001110100111110101000000111111110011110100000011110000010100001010
000000101111110000000001000001101111101111111100000010110000100011110011
000000101111100011110111000011000000100011111101000000011111110000000100
111100011110010111110011000001100000110000000101000001000001001100000110
111101001111111011110111000011010000000011111001111100101111100100000100
000010101111101011111110000110010001100011111101111111110000010011101100
111011011111110111111011000001001111011111110111111110111111101111111111
111101011111111011111000000001101111011100000000111101001111101111111111
111000111110111111110100111110100000000111111011111111111111100111101101
111101101111111011111010000000011111110100000110000101010001000000001001
110110111110000011110001111101111111000100000000111111001111110011110100
111101111111000011111010111111110000000000000111000111000000011011111010
111010111111110111111001000000101111010111101111111110001111011000000000
111111011110101111111010111110011111110011111011000010010000101100010000
000000110000010011111101000100011111111100000101111101111111010111110110
111110111111100011111101111110110000101000000101111110111111111000000000
000001001111100000000011111110110000000111110111111110001111011100000001
000101100000110111111001000001010000000011111000111010111111010111101001
000010010000000111111110111110110000000011111101000000001111101011111000
111101101111011111111000111110100000001111111100111110011111010011111111
111110011111111100000010000000100000011011111010111111111111111011111010
000001110000111111111111000100100001000100000000111110011111011111111100
111010001110010111100100000101100000011000000010000011010000001011110101
111110001111111100000010000000101111111011111001111110101111101000000010
111100111111011111110100111111011111011011111010000001010000000100001101
111111101111011100000000000010110000101100010010000100100000101000010101
111111001111010011111111000010110000100000000010000011010001000000010110
000001011111101011111110111110101111000011110011000001001111111011111111
000000101111000111110111000001011111000011111000111110101111100011111010
111100101111011111111011000010010000000011111110000100100000000000000100
000010101111110111110010001000110001001111110010000100011111110011110111
000011110000101011111010111101101111100111101111111110011111111100010011
000000111111100011111100000001010000000000000010000001001111100111111001
111111011111001011111000111111101111111100000010111111111111011011111010
000010000000001000000010111111010000011011111100111111100000000011111101
000000011111101000000101000011110000111100010100111110111111101000001100
111011111111000111111000000000111111111100000010000000100000111000001101
111011011111010000000110111110011111111100010011000000110000111000001101
111101111111100100000101111111000000100000001100000010010000010100011100
111000011101111111110100000100100000001011110101000100110001000011110110
000011101110011011011100000000110000011011110010111100001101101011011100
111110101111000100000001000010110000100000000001111100111110100111100011
000000111111100111111110111001010000000111110000111110011111110100000001
111100110000101000000110000010010001010000001111000011010010000000010111
111110001111011000000010000011010001001000100000000001011111000111111101
111111010000001111111010111111011111101111110000111110101111110011110000
111111000000010011111100111111010000010000000110000000101111110100000011
000110001111111011110100111111101111000011110001111111100000001011101001
111001111110001000000000111101001111101100010000000010100000000000010100
111001101110001011100111001001010010100000010101000110100000101100001001
111011110000000111110000000101001111111000000011000100110000100011111011
111110001111010111111101000000000000000100001100111011111111100000001100
000111010000110011110001000001000000100100001100111011001111011011110110
111110001111100011111000000101000000111100001000111111111111001011101000
111111000000111011111100000100000001000111111010000001110000011000001001
111111010000010111111011111101011111100111111110111111011111000111111000
000001111111011111101011000001001111001111110100000000011110110111010100
000000010000011111110100000001011111110111111000000101011111111011111100
000100011111111000010010001001111111111100000100000001010010000000100000
111111011111001100001001000100001111110011110100000101001111101000000101
000000110000100111111011111111011111111111110011000000100000010000000111
000011010000111000000000000011100000001011111010000010001111101100011000
000101010000111000010110000000010000001011110100000001001111101011111111
000000001111101111111110111110100000010000000001111111000000010100001011
000000111111000111101100000001111111010100000000111111111111111111110011
000010010000010011111000111011100000000111111001111100111111011011101010
111111110000000100000000111111100000000100001010000000110000100011111000
111111101110111111111101000111110001000000000000000111000000101000001100
000000110001000100001111111110000000010000010010000000010000000100010111
000000111111011100000101001010010000101111111111000101010000100000011011
111110011111010011110101111110110000100000000110111111101110111011110111
111110010000001000000110000010000000101100011000111011111111001111111100
000101000000111111110010000100100000101111111100000101100001000011111110
000001110001101000001000111110110000111100000111111111101111011111110000
110100001110110111011000111101110000000011101111000111010001010111111110
111111110001001100010011111111000000100000001000000000011111111111111010
000011001111100111111111000011010000101011110101000010011111001100000011
000000001111111011111100000100100000100000000111000001111111010000000000
111010101111000000001011000010000000001100001000111100101111110111110010
000001000000010100000001000101000000101100001100000001001111110000000110
111111101111111100000011000001000000100100001101000000011111101000000010
000011101111001011110101000001000000101111111000111111100000000100000101
000001010000001100000010111111110000001111111100000000010000011000000101
111110001111100111111111000010010000011100000111000000110000100000000110
000000101111111100000001111100101111100111111101111110011111100011111001
111111101111010111110110000011110000111100100101110111011110001011101001
111101101111000011101101001100110001001100000111001010000000010100011111
000001100000001011111010000000111111110011111000000001011111111111110111
111011111111101100000010111110011111111000000001111111100000001000000001
111100010000001000001011111100010000001011111110111011001111100111110101
111110110000011011111101111011010000100000001001111101110000010100001110
000000101111111111111100111110101111110011111110000001010000010111110111
000000100000101011111001000000010000001111111101000000011111110111110110
111110000000110100010000111111010000111000001111000001100000000100001001
000000010000111111110011000000110000000000000110000001010000001000000000
000011000001001100000011000011110000000011111000000011101111101011110001
111110100000011011111101000001011111100011111011000000011111100100000111
111110000000011000000000111111001111011111101100000000011110111111110111
111111001111101100000101111101100000010011110110111100101110111100000100
111111110000000011111100111110111111111111111010111101101111000011110110
111111010000111100000010111101001111111100010011111101111111100100000001
111111001111111111111011111100100000001000000001111101011111001011111111
000010000000110100010110111111100000110111111010111100111111110011100100
110110111111111100001110111000110000000000000100111110011111100011111100
111010001111110000000111111110011111101111111011111110001110110111110101
000000010000101000000000111111001111011111110011111110101110101111111000
000010000000011111111110000000011111100011110100000010001111000011111110
001010000000111000100111000000110000001000001100111111110000000011111100
000100000000100100010110111111000000001111101111111101111111111011101101
111110101111111100000110111101010000000111111111111111110000010111111011
000010011111101111111000111111001111111111111110111111001111100000000001
000010111111101011111011111111011111110111110101111110001111011000000001
111111011111101111110111000100101111100011111111000000011111001100000110
111010100001010000001010000001111111011000000100000010011110111111110110
000101000001101000000101111111100000000000001010111011011111000011110011
000001100000100100000100000100110000101011110110000001001111100000000001
000000110001001000001000111111110000010011110101111110111111001111110001
000000101111110100000111000000101111101111110111111110101111010111111011
111110110000101100001010000011000000101000001100111110000000001000000101
000010000000001011111101000000101111110011111000111111011111011111111000
001011000010000000001001000101100010000100001101111101110000101011111010
111011101111110111111101111111111111110000001010111111010000100000000101
000000001111100100001001111011101111000011110010111101101111111100000010
111111011111101000010110111101101111111100000100111111110000010011111010
000011000000010011111111000000011111110100000000111110011111011111111010
111101011111111011111101111110111111111000001001111110100000100100000111
000010100001000100000100000000010000100000000100111101111111110111111100
000001010000001111111110111111100000010000000011111110010000000111111101
001001000000010100000100000001010001010000010000111110010000011000000110
000011000000011000000011111101101111101000000000111101100000000000000000
000001110000000011111010111101000000010111111001111100101111000100000011
111110100000010000010100000011010001001000011001000011010001001000010010
111100110000100000001111111101101110110111101111111001101111011100000010
000100010000001000010101111110111111100000000010000010110000001111111010
111110100000011100000100000010110000000011111110000000001111010111111000
000000000000011000001110000001000000000011110001000000011110111011111011
000011100001000100000010000100000001010000001011000000111111111111110110
000110010001001011111101111011010000010000000110111010011111111000000110
000010010000011100001101000110100000011100001101000001000000000011110100
000100110000011000000101111100111111101111111111000100110001000100010010
000101000001000000000101000011100000000111111011000001100000011111111100
000011000001000111101100000101010000111000000011000001011111011011110100
111101111111110011111010000000011111001111110100111001101111001111111011
111110111111100100000011111111011111101100000001111110010000001011111011
111101010000001100001001000000011111101011111111111110011111110100000001
000011000000101000001011000011011111111111110110111111011111000111101001
000011010000001111111111000000110000010111110110111110010000100011111000
111101100000011011110011000000100000000111110010111111011111111000000001
000001111111101011110100111111100000011011111100000000100000100000000001
000011010000110000001011000101011111111111100110111110001111100111110110
111111100001010000100111111111010000011000000110111110111110001111011100
111110010000011011111100000001011111111000000110000000100000000000000101
111111010000010000000001000000000000000000000100111111010000000000000000
000001001111011111111110000001000000011100001011000010100000001100001100
111011111111110011110100111110000000010111111011111110101111111111110110
000000011111101111111010111111010000100000000110111111010000000100000000
000001010000001100000101000000011111100111111001000000111111110000000011
111111101111011100001001111101001111100100000110111110100000100100001110
110111101101010011100110111100111111111011111111000010110001001000001000
000011100000111100000000000110010001010000000111000101010000110011111111
000000111111111100000111000001011111110011111011000001010000000100000000
111111101111001111011110000001100000100100001000000010110000010011110000
111110100000001000000110000000101111111011110010111110110000110100000110
000000110000011100000010000010100001011000000011000001110000011111110101
000001001111000000000110111110111111001000000010000001011111101100000111
000010011111111100001001111111011111111011110111000001101111111011111011
111100011110110011110001111111000001001100001011000000000001110000001010
111010101110010011111011111110100000000000001100000001100000001111111000
111010101111010111110000000000000000111100000101000001011111010111101001
111110101110010111110001111110000000010000000010000100001111101111111001
000001100000000011110101000010010000101000000000000101100000110111111000
110101001111101111111011111010101111110100000100000100000000001100011100
111011011111001111100000111110000001001000000110000100100000111100000001
000010100000000000000111000001001111001111111000111110111111111111111001
111101100000011100000101111111001111100011111111000010010000001011111101
111101100000000000001110111101111111001111111111000010000001000000001101
000000111111100111110010000010111111011000000001111111001111011100010001
111100001110001111111001000000000000101100010110000110110001010000001101
110110001110000011101001111111101110110111100110000100001111101100010001
111111110000100000000011000011001111111111111011111111001111110111111100
000000111111111000000100000010000000111100010010001010010001010000010001
111011001110111011110101000001010000010000001100000010011111111011101110
000000000000001100011001000001101111110000010111000010001111111000010110
111111111111110100000000000001100000010000000000111111001111110000000011
111000101110011011111111111101001111001011111010111101100001001000011101
111110010000011011111101111110001111101100000010111101110000001100001000
111011001110110000000100000101000000010000001100000101011111101111100100
111001001101101011011010111111011111001100000111000101110000011100010000
111111001111101011111011000100110000000111111000000110110000101011111100
000010011111110111111110111111001111111100000000111101111111110111111110
111011110000010000000011111101101111001111111010000010000000010000011001
111101100000010000000000000001000000100100001010000000101111111100001011
111001001110101011111101111111101111001011111101111101000000110000000011
111111111111010011110110000001011111111111111111000000000000001000010000
111110101111100000000100111110010000000111110101000001100000000111101000
111100011110010011111111000001010000000100001100000001000000011000000100
111101101111010011111001111111110000010100010011000011000000001111110000
111000101101111111011110000000000000001000000101001001000001001011110100
000011001111011011101000000101010000111000010110111110011111000111110010
000011010000000111110100000011111111100100000011000000111110100011101111
000000110000110000010001000000100000101100011000000010000000010000100101
111100011111111000000100000001001111000111111010111111110000111100101110
111101000000100100000010111110000000110000010010000011100000100100100100
110111011110101011111101111110101111010100001000111111110000010100001011
000001110000101100001001000010000000011100010101000001010000011100001010
111110010000011111110101000001111111011111111110111101101111110000001001
111111111111000011110101111101010000101100000110000011000000001111101111
000000101110110011110110000000110000001000001111000010001111110000010001
000001000000010100010000000000010000001100000101000010100000000111111110
111110100000011011111100000000100001000100001001000111100000100111111101
000011000000001100001001111111100000001000010011111100100000111100001111
000001100000001100001010111111110000011111111010111101000001000011111010
111111010000000000010010000010011111100111111101000001011111111111111001
111100111110110111101001000100110001110000011101000010001111101111101101
110011111011111111001100111110100000010000000001000001100001010100011010
000000111111011011111001000000111111100111111111111110111111111000000101
111110101111110111111011000000001111101111110101000000000000001100000100
111010111111100011111010111011010000010011111000111110000000011000000111
000011010000011100000100111111101111111111101111000000001110110111111000
000000100000100000000110000001011111111111111011111111010000010111111110
111111011111110100000101111111101111100000000101000001010000000000000001
111101100000010100000010111100101111101100001011111101001111111100001011
000010000001010100010011111110001111100000000101000000010000000100000000
111110011111001000000001111011110000000111111110111101000000000111111011
000000011111101011111001000000001111110100000100111111000000001000000010
000000011111110111101111111111001111010100000000000001110000001100000101
000010000000011000010101111111011111110100000000111111101111101011110000
111100111111110011111000111100010000010100000111111110001111111100000010
111011111111011100000110111101000000011000001000000000001111101000000110
111100010000011111111100000000000000010111111010000001001111010111111010
000010111111111111110011111110001111010111110100111111000000111111111110
111101110001010100001111111100001111110111111110000001011111101000000100
000001000000011000000011111101011111101000001001000010110000001100000100
000001110000001011111111111110110000011000000010000001100000001011110101
111110001111110100000010000000000000100100001000111111110000011011111010
000101010001000100011001000010000000100011111001111001111111101111101101
000101110000011111111000111100011111011011110101111100100000111100000010
111110011111111000000110111101011111110100000001111111011111110100000000
000001010000000100000111000000100000000011110110000000101111101011111110
000101010000110000100010000011010000011000000010000100010000010011111001
111010111111001100000010111101001111011011111001000001011111011000000100
111100010000010100000100111110011110011000001010000001101111111100000100
000101000000101000001010111101011111000111110100000001011111111100001000
000000101111101111110001111110011111011111110001111110110000000000001010
111110111111010100000110111100011110101000001001000001010000011000000011
000000010000101000000010000001011111111000000110111111011111011011111111
111110111111011011110011111111111110101100000000111111101111011000010011
111111100000001111111110000000100000011100000111111111010000011100001010
001000100000101000011000111111010000001111110001111110011110101111110111
000010000000100000001001000000110000000011111000000000011111111111110101
111111110000011100000111111110101111001000000111000011000000010111110111
111111100000011000000000111110001111110111111110000000101111100000001011
111101010000010100001001000000110000100100000101111111010000010000000100
000000011111111111110110111111111111101011110101111111011111100000000000
000011100000110100001101000101110000011011110110000010100000000111110011
111111100000001100000111111110110000101000000100000000100000110011111101
000011010001011000000101000001100001001000001010000000011111001100000101
000000000000101100000010111110010000110111111011111111100000001111111110
000001110000001011111100111110001111000111111001111101111111000011110000
000001010000101111111110111100111110010111111100111101001111010100001000
000001010000000111111011111111110000100011111011111111011111011000000010
111111000000100100010100111111011111101011110110111110110000000100000000
111111011111100011101101000000010000110011111110000000000000110000010010
111110001110110011100110111101110000100000001010111101101111110100001100
111101001111110011111101111110111111010011111111111110110000010000001001
000101010000101000010001111111110000101111101101111100111111001111110110
000001101111100000000011111101111110010111110111111100010000110000000000
000100100001010011110110000000010000100111101110111101101111001011111101
111111111111010111111111111101001111011100000010111110100000000000000011
111111111111001000001010111110000000001100000010111101101111110100000101
000000001111111011110100111110000000100111111111111101011111101111111110
111110011111010011111110111111010000000011111110000011001111011100010010
111100111111100000000010111101001111110111111101000001011111101111111010
111111101111011100001010111011101111001000000111111110010000000000000111
111101001111100011111001111100111111110111110111111110111111110111111010
111010001111111011111111111101011111101100000001000000111111010111111101
111111111111111100000011111111011111100100000110111101011111111111110010
111101011111111111110011000010110000010000000011111110000000000000001001
111011111111001111111100111111100000011100000010000000110000100000001110
111111110000001000001011111111111111111000000011000000001111111011111110
111110010000010111110111000000111111110000010010000001000000000100000100
110111011110101111110000110110110000001111111101111101011111100111111011
000001010000111111101110000101000000001000000100000100010000000100011101
000000011111000111101111000010100000000000000000000001000000011000001001
111110110000011100000110000001110000000100000000000001101110111011111100
000001111111111111111000000101011111010000000110000010110000011000010001
000111000000111011110000000110100000111100011011000100011111110100001010
111010101110111100000011111010101110010111101001110101011101001111100111
111111110000001100000110111110010000000111111000000000100000010100000001
000000001111010000001000111110000000011100000011000000011111001111110010
000011010000011011111010000000001111010111100000111101101111111000001110
111100111111001111111111111001100000000011111100111010111111011011111100
111100000000110100011000111111010000100000001011000001110000001000000100
111111111111111011111010111111000000001000001000111110101111110100001001
111101001101000011010010111011101111100100001100111110100000100000010011
000011011110111100000010000110101111111000001001000011001111100111110100
000101100000010100000000000010110000000000000101111111001111011111110001
000100100000010000001000111111101111011100010001111110001110111111011111
111111001111100000000110111100111111010111110010111001001111011111110000
000100101111110111000110000010011110011111101100000001001111110000011001
111011101101101111100010000001011111110000100010111010100000001000000111
111100101111101011111001111100101111001111111001111111010000010000000010
111111000000000011110111000001101111101111111100111110101111100011111001
000000110000100000000101001001001111100011100111000000110000000100000000
000011110000110000010011000100111111001100010011111110111110100100011101
001000010001000000001001000001001111101000011100111011001110111100001010
000101011110111111101010001001100000010100001100000111110000110100101011
111111001111010111111100111101100000011100001000000001101111101111110110
000000001110101000010001111100001110110000000101110111011101101111100101
000101100000111000010010111110001111111100000110111111111110110111101111
111101111111100111111010111111010000001100000011111111101111110111110111
111101010000001100000010111110110000001011111110000001000000010011111101
000010110000111111111000001001001111110111101101001000110001000000010101
000101001111100011110000000000100000001011111110000100110000101000001010
000010111111011000001100111011010001011100000011111001011111111011111011
001000011110010111101001000000100000100000100110000001110000011011111000
000010011111101100000111111110101111011011110111111000111110011111110101
111110010000001111111011111111011111111100001110111101111111100111111010
000011111111001011101001111110001110110011101010000011100000011000001001
111111101111111100000100111111111111101111110110000001101111111111110101
000110100010001111111101000111110000000111101100001001000001000000010100
111110100000010111110110000000011111001111100101000000010000000111111101
111101010000010100001001111011011111011000000010000001010000001111111011
000111001111110111101100001000011111101100001010000000110000001000011101
111011011111100111110101000000000000110000010000111111001111111111110101
000100011111000011111110000001101111110100011100111110011111100000010111
111010011110111111111000111100100000101100001111000001111111110111110010
111111001110110100001011111100011111111000001100111101111111001111101010
000000010000000000000101111101011111110100000111111101001111111011110110
000001001111100011100101000000111111001011101001000110110000101000010001
000100101110001111101000111010111110111000010010000000001111100000010101
000010001111110011011001000010111111011011101110000101000000101100001011
111010001111001000000001111000101111010111110010111010111101111111101011
111110110000100000001000000100101111000111110110000100011111010111111111
000001010000011000011010111011001110110000001000111110001111011011100010
000101000000011111111110000011111111010000001001111100001111110100001101
111111111110110011111010111111001111011011111110000000111111110111111100
000010101111111000010001111010111111101000010100111100011111000111110000
111011001111001011111101111010111111011111111110111100011110100100000101
111000001111001111101010111001110000000011101011111100110000000100000001
000000111111111000001001111110001111100000001010000000100000001100000100
111111001111101100010000111100000000011100110110111011111110000011001100
000010001110101011011000001001100001011100111110000010011111111100011100
000001010000011111111101111111000000000100001000111110110000100011111011
111101010000010100000111111110011111111100000010000000110000100011111000
111101001111001111110000000000101111001011110001111110101110010011100010
000001111111100011110100111110101111111011110100111111011111110111110001
111100111111101111111000111111101111010100000110111101100000010100000111
111100110000000100001101000000101111101000000110111111000000000100000010
111110000000101100011010000000000001000000011000111111100000000000000001
000010001111110000001100000010111111111000010001000011100000101000000011
111001011111001111110101000010101111100011111010000101011111101100000011
111111000000000100000100111110010000011111111011111110001111111100000010
111110111111010111111001111100101110101100000010000000001111100011111101
111111010000011100000010000001100000011111111101000001100000110000010001
111110001111000111110110000011011111010011111011000001011111010011110110
000001101111110100010010000000010000100000001100111111110000011100001010
111110101111011011111010111111110000000011110101111100110000001011110000
111101110000011000000111000010110000111011111100000101010001000111111101
111111011111010100000101111001011111101100001100001000000000110100010100
000000001111010111110000000000100000110100000111000011100000011100001100
111110001111011111101001111111101111010111110110000011000000100000000010
111100001111101111111100111100111111011111111010000011110000000100000010
000001000000011100000000111101101111110111111011111110110000100111110110
111011100000001100000011000010100000111111111000000101010000111100001100
000000011111100011110110111110111111110111110110111110010000100000000011
000010000000001111111011111111110000010011110110000000011111111111111100
111111111111010100000001000000001111100000000110000011110000011100000100
111101111111101000001010111110101111110111111011111101000000011011101111
111001001110111011111110111100111111110100001000001011110001111011111011
001000100000111000010001000000100000011011111011000001100001000011111111
000010001111100100000110000000110000101111101111000010100000011111110010
111011010000000111111110000000100001000111111110000110000001001000001101
111101001110111011110110111111001111100111110110000101100000010000000101
111100001111111100000011111111011111010100000000111101101111110111111010
000000001111110011111000111111101111011000000110111101110000011000000101
000000001111101111111101111000101110111111110010111001101110110000000101
000000101111101111111100000001110000010011111100111101100000000100000001
000100110001001100000101000111110000101100000110000101000000100000000111
111111100000001000001101000001010001100000000100000101101111110000000010
111101101111110111111101000011100000100011111110000101100001100100010011
000100100000010111111100000001111111100011110001111110010000100011110011
000011000000111100001000000000110000100100001001111111010000010011111000
111101010000011111111110000000001111111011111110000001011111100100000000
000010000000010100001011000000011111111111111101111100001111001011111111
111011101111011011111010111011111111110100001100111110101111101000000100
111111001111101011110000111110100000111000001001000010010000100100010010
111101110000011100010011111110101111110100000101000010000000010111111000
111111101111100111111110000000011111110011100111111111010000101111111100
000000100000100000000101000010110001110000001111001010001111111000010011
111010011111011111111011111110111111011111110011000001101111100111111100
111101101111010011101011000011011111001111101011111111010000011011101110
111001101111100100001110111110001111010011111111111100011110110011110100
111110011111101011101101111110011111100111110011110111011110100011111010
110100111111110000001000110100101111011100001011111011011110010011100110
000001111111110111110001111100111111100111111111110100111111011111110010
111001011111110100000000000000111111111011101111000001111110100011111010
111111011111111000010010111110010000010111101100111100011111110011100110
111000101101111111100000110110101110011111110000111011110000010011111011
111110110000011100000101000011110000001100001001000001110000101111111101
111110110000001111110101111111110000100111111101111110101111110111110000
111111001111011011110001111111100000000100000101001010100001011100001001
111110000000010011111110000001100000010011110110000000111111100111111000
111010101110111111101111111111011111001011101100111111111110010011011101
111111001111111011110111111011111111110111110110111110110000000011111011
111100001110011011010010111101001110010111011100111111101111111011100111
111100100000101000000000001001110001100000000110001101000001000111110010
111101100000000000000110111111111111101111110110000001001111101000000100
111101011111110111111110000001011111111100000101111101101111100100000111
000001110000101100010100000001010001010100000000111011110000010111110000
111101101111110011101111000011010000011000001000000000101111101111111101
111100101111101111111001111111011111101111111110111101111111110111111010
111100001111110011111100111100100000001011111001111110111111011100000000
000000000000000000000011000011100000111100010001000001110000110100000110
000010110000001100010010000011111111101100001011111101011111000011111011
111001011111010100000110000010100001000100001011000001011111101111101011
000000011111100111111011000000110000000111111111111110111111100000000010
111111110000111000010000111100101111100011110001000010110000100111111010
111100111111110111101100111110101111000011111010000001010000001100001111
000001010000000100001011111111110000011111101111111101111111100011101001
111100111111011100001010111111010000101100000010000000111111100100000000
111101011111100111111010111111111111110111111011111101111111111100000000
111111001111011100001111000000010000001100010001111011011110110111110100
111100011111110100000010111111100000001000000010111111000000010000000101
000001010000011111111111111100111111100100000100000111000001000000001111
111101000000011100010001111010111111101011110101000010110000011111110111
110110101111001100000011111101100000000100000000000001100000001011101111
001001010001010000010100000100110000010100000100111101001111100011110101
111111100000100100010010000001110000100100001000111100110000100011111010
111100000000000011110100111110011111100111111011111111010000100011111101
111110100000001011111101111110101111101100000101111111001111101111111011
000001100000010111011111111011011110100111101000111110111111001011111011
111101010000110000001110000011101111111000000111000001111111101100001001
000101010001001100010101000001000000101100000010111110011111011011111000
000101111111111100001110000000101111110100011110111111101110111000010010
000000001111110100001001000000001111011111111111000011010000101000000010
000100110000000000001111111110111111101100000011111101101111100111110011
111110100000001000000100111010000000000011111110000001100000111100000010
001001100000110000001010000010010000110000001010111110001111101111111011
000001111111100000001000111100001111001011111001000000111111010111110101
111011110000001111111000110111101110111111110000111110000000101100001011
111001001111110011111100111110111111110100000001111101001111110100000111
000110000000101100010001111110011111100000001010111010001111011111110110
111111010000010000011010000000000000111000001110111110011111101000001111
111101011111110100000010000011000000011011111110111101111111100011110001
000000001111111100001000000001111111100000000000111111111111100000000001
000011000000000011110010111110001111101100000001111100101111011100000101
000001001111111100000100000001011111011111111101111100001111100111110011
111111110000101111111101111101011111101111111011111111011111111000000111
111110001111111000000110111001011111100011111101111100101110111011101101
111111111111101111111001000001110000100100001010111111111111100000000011
000101100001000000000101000110000001000000001110111111111111111100001011
000001000000000100001001111110001111010011111000111010111111110011110111
000000101111001100010101000011100000100000001100111100101111100100000000
000100010000011000010001000001010000011011101111111100100000000011101111
000000000000100100010010000000000000010011110000111111111111101011111101
001000010000101100011101000000000000101000001001000001100000100100000011
111011001111111011111010111000101111100011111110111111111111011100000110
111001111111010000000001000010010000101000101100111110101111011000000011
111100101111011000000010111111100000000100001000111110101110101100000110
000000010000100000010111111111110000111011111101000001100000011011111110
111111000000110100001001000000111111111111111001000011100000001000010000
111001110000011000000100111001101111011111101011000000011110101111101001
000000100000100100000101000011000000000111111001000010011111011100000001
111110100000100100000100000001111111111011111010111110101111011011110110
000011010000011100001110000000000000101100010011000010010000001011111010
000000110000110000000010000001100000000100000001111110101111101111110101
111110110000001000000011000000100001000111110011111101010000011111111000
111010011111001111101101111011110000000000000100111101011111010011111110
000001110000111000011101110111011110101111111010000000111111011011011000
000101000010001001000010000011010000111100001111000011101111111011110010
111110011111111100000110111111111111111000000101111110011111101000000011
111010111111010011111100111101001111010111110010111110010000010011111010
111111001111100011111001000001010000100011111100000000011111011011111101
000010111110101111110000000010001111001111101111000100000000001011110101
111110111111111011111100111110000000000111111011111101100000000011110100
111101101111110111111101111110001111011000000011111110011111110011111100
111000101111111000100110111101000000000100010011000001010000000111110011
000100000000010111111011000111100000100011111110000011010000011000000011
111111100000001100000110110111111111000111111010111011111111001100010001
000001110000011111111110111111000000011000000100000001100000011100000101
000000101111100000001011000001111111110000001111111111010000000011111011
000000111111000011111001000000010000001000000000000001010000001011111111
111101010000110000001100000001100001001000011001111101110000101000011000
111000111111100000010111111100111111011000010111000000000000000100001100
111100101111010011101000111110010000000111110111111110100000110100000010
111111000000110011110000111111100001010100000011000001010000011000000111
111101011101100011111010000011101111101011111010000100110000110000001100
000001001111000011101011000100001111110100000010111111101111100111101110
111111001111001100000111000011000000001000010000000001000000100111110000
111111101111011100001100111001011111010000000011111011101111000000000011
111110001111111011101010111111100000110000001101000001110001111100000001
111111000001100011111011000000000000011000010001000010000000111100000111
111101010000011100001111111110111111100011111000000010000000101000000100
000000111111101111111101000010001111111011111100000000101111100100000001
000000011111000111101101000001011111100011111000111101111111100111111001
111101111111010000001010111100000000011000000010111001101111011100000000
111001101101100111111101000010100001000000001110000100110001000111111110
001001100000010011100011000101101111100111110001000011111111110111110100
000010110000000111101011000001100000101000000000111110100000011011111100
111110100000001100010101000010100001001000010010111110111111101011101000
111100001110111011110110000010110000011000001001000010000000010011111110
111010111111110000000101000000000000011111111000000001011111110111111000
111110010000001000000101000000001111110011111010000000101111111000000110
111011001110011011101111111101101110101100000000111000001110001011001100
000001011111110011110111000011011111001011110111000000110000010111101011
000110010000010100001101000100000001011000000111111010111111000011111101
000001001111111111111111000110100000001000000001000101100000110000000000
000101110000001100010001111100111111101100000001111011110000001000011001
000110110000011111110110000011001111111111110000000001110000001100001000
000011110000100111101100000011110000101000000000111101101111010111101111
000001000000100111111101111111110000010011111001111110111111110100000010
000001010000101000010011111110101111101100000110111101101111000011111000
111101101111100100000100111011101111011000010100111010011111010011110010
111101100000010100000010000000100000101100010101000011000001010100001111
000001101111001100000100000100000000001111111100000100100000110011110111
000001100000001111110001000010110000000111101101000001011111011000001001
000011000000011100001111001000000001001100011110000100011111100100000011
111110001111010000001000111111010000010100001000111110011111101100010000
111100100000101100010011111101100001010100010011111111000001010000011101
111011000000010111111110111111110000011111111111111000001111111011011111
111100101110101111001101111101110000011011111000110011001101100011010100
110011101111100111110000110111101111000111011110111101110000010111011100
000010100000110011110000111000001111111111101001111100101110100111011010
000000000000100100010100000000111111101100001101111010111111000100000101
111111111111000111111111000011000000000000001100000000111111100000000011
000000101111101100100010000000010000101000011011111011011111001000000001
000000000000100000001101111111110000101000001101111111100000011011111110
111100011111101011101100111110110000101100000001000001000000010111110111
111100111111100111111100000100110000101000010111000000000000000100001010
111110110000001011111100000010010000100100001110000011001111100111111001
111010101111010100000001000011100000011000010000000011001111101000000111
111110111111110000001011111010001111110011110101111011110000011111111010
000001010000001000010000111111010000000100011110111110110000011000001110
000010000001100011111110001001110010010100011101000110010000110100001110
000000100000010111111000000001010000000000000110111111100000001111111111
000010001111100100000001000000111111111011111100000000001111101011110010
111110010000110011111001000011100000000111110000000100010001001011111001
000010110000000011111000111111101111110011110101111101101111001100000010
111111111111111000000011000001101111100011111100000001100000010111111011
111111111111110100000100000000000000001100000110111110100000000000000100
111110101110101100001011111110111111100100000100111101111111011100000111
111110101110110111111010111001011111000111111101111011101111011100001100
000001010000000000000011000011010001001000010110000010001111000100000010
111111111111100011111000000001010000010000000111111111101111100011111101
111110010000000111110000000010000000011100001001000000100000001000000000
000000101111111100001011000011010000101000001010111101100000001011110111
111100111111100111111000000011100000010111111011000001010000100000000110
111110011111101000001010111111101111100111110100111101001111101100000011
000000100000000100000010000011100000000011110110000001110000101011110011
111111000000001000000011111111010001010100000101000010110001001100010111
111111001111100100001100111111011111010111111111111110101111100111111000
111100111110110100000010111001110000010111111101111110111111101000000111
111011111111010100000011111100110000101000000011000010010000010000000100
000000111111111011111001111111000000111000010000000000000000000100000111
000000100000001000001011000010100001000000010010111111110000101100010100
111101001111111000001111111000100001001100010001000001100000111000011111
000001010000000100000110000001111111111111111010000001111111100111111010
111111010000010011111001000001010000001011111110000001011111111111111111
111110011111010011110110000100000000000111111101111100110000101011111100
000001011111011000000110111111101111101000000010000000011111101100010010
111110101110111011110000111011001111000011110110111100000000111000000100
111110001111001011101100111110110000011011110011111011100000111000000011
000001010000001000000101111110100000011011111100000010000000100100000101
000010001110111000001001000000110001001000010001000011100001001000001001
111100101111110011110011111101111111101100000100000001000000001000000101
111111010000001100000011111110100000010100000000111111110000101111111110
000000101111110000000000000001001111101011111111000000111111101011111111
111101011110110111100101000010111111100100001001111111000000000000000001
000010100000011100000001111111011111111111110101111110001111111111111010
111000111111010100001011000000110000100100010000111100010001001000000101
111110101111000011111001111010011111110100000101111110000000100100010110
111101010000001100001010000010000000001100001101111111001111001100000001
000000100000100111111101000000101111100111111001111011011111111100000011
000000000000100100010000000000110000001000010011111111000001000100000001
111110101111111111111100000010000000011111111101111111011111111100000111
111101101110101111101100000000011111100000000100111101111111010000000011
111110111111010111111000000010011111111011111110000000010000100000000101
111110111111100111110101111111111111101100001000000011110000010000001010
111101001110111011111010111110001110110000000001111010010000011100001000
000010010000011011101111000000110000010111111000000000110000001000000000
000000011110100000000001111010001111110100000101111011010000111000010100
111001101110110111101101000001000000010000000010000011100000111011110101
111010100000000011111000000001010000100100000100000011100001011111111101
111111100000010000000110111110110000111000000000111111000001101111111101
111111010000101011110100000010100000010111111010000010100000000000000110
111100100000010000011101111100000000011000001001000010000000101000000110
000011001111111100001000000100100000001000000011111101000000010000001011
111100001111110100001000000010010001010100010101000100101111100100000100
111110001111010011111101111110100000010111110001000000010000011011111011
000001001111000011100100000010100000000100000100000011100000010011101010
111111011110110100000100111110111111001100001010111100000000001000001100
000000100000100000000111000001010000111011111001000011000000011111110101
111100111111101100010010111101010000100100001010000010010000111000000100
111101010000011100000110000001111111110100001001111111100000010000001110
111111000001011000000110000011100000100011110101000001000000010011110110
000000000000011100001100000000110000010111111101000001000000000100000001
110110111110111011100001000001011111111011110101000111100000101011100111
111001011111000011110010111011010000011000001000000010100001010100010001
111101111111110000000101111110011111111000000000111111101111111011111110
111111001111000100000011111110101111110111111110111110101111010000000110
000001010000101100010101000011010001100011110111111100111111110011100111
000010000000011011110101000110011111101011111000000001111111110100000100
111100111111100111111011111110001111100111111101111110001111011111111111
111101110000000011111011111110101111010011110101000010011111101000001010
111111101110100011110010000011001111100111111101000100110001000000011011
000110111111100000000110001010100000001000010000111110111111110100000110
111011011111101011111111111001100000001000000001111110011111111111111001
111111000000001111111110111110011111111111111001000000010000001111111000
000000010000110100010010000000101111110111111010000110010000111100001000
000000010000000011111001111110011111100011111011000000010000001100001110
000010111111111000000100000000010000011111101010111110011111101011101100
111101001110110011111101000010010000010111111100000010110000010000000011
111101101111000111101110000001110000001111110001111111110000001011111011
111110111111000100000011000100100000111100000111111010011111001111110110
111111001111010011101011000100100000001000001001000001001111010111110101
000010100000010100000000111001101111010100000100000010100000001100000111
111111101111110000000110111100111111011111110111000100000000010111111000
111110111111110011111011111010011110101011111000111100100000001011110110
000101100000110011111100000011110001000000001110000001000000010100000010
111011111111010100000000000011000001101000000010111010110000000011111101
111100101111100111110101111011101111101011111010000000010000011100000010
000001100000010111111111000000111111011111111011111110111111110100000001
000101010001011111111100111011011110110111101101111011111111010111111101
000001111111010011111011000111100000000000000101000110010000100000001010
001010110000000011111000001011000001010100000111111101011111111111111100
111101011110100011110110000100110000111000001111000011011111110000010111
111101011111001100001001111111000000000111111111111111100000010011111001
000111110000110011111100111011101111001100000010111010011111010011110011
000010010000100111111111111101111111110011110001000010010000001111111110
000100000000000000000111000100000000010000000110000001100000101100000010
000000010000000111111001111011101111100111110010111101001111111100000010
111101110000010111101001111100001111000111111000000011000000100100010010
111110011111111111110001000011001111110011111010000010010000101000000010
000001110000101000011011000000000000001000011000111111100000000111110101
000001100000100011111101000100000000110000001101000000011111111100001101
111100011111100011111111111111100000001011110110111111010000000011101100
000000111111111011111111000011101111111100000011111111011111110011110110
000011100000111000001001111011111111110100000101000000110000000100000000
111111000000000000000000000001100000010000000101111101111111010100000011
000001010000010011110110000001001111100111111100000010100000010100010001
111101100000111011111110110111111110011011111011111111001111111000000111
111111110000010111101110111110101111110011110001111111011111101111111000
000101011111011111110011001010010001011100010111111111110000111000010000
111110000000010011111100000010001111111111101001111010001110110011100101
000011000000000100001011000101100001000000000001111101111111111000000100
111111011111101000001111111110011111110111110011111101111111011111101111
111111101111001111111000111011000000000011110011111100001111101011110000
000101000001000000001000000011100000101000000111000010110001000100001001
111100110001000111111011110111001110111100000001111101001111000011111111
110110011101111011110111000000110001010000010110000000010000110000001011
111101001111101000000110111100011111010000001110111111101111100000001110
111111000000011100000110111111010000011000001000000001110000101000001011
000001001111101111101110000010111111111111110010000101011111101100001000
000010100000011100001110111000011110101111110100111100111111011100000110
000100101111110111111011000111000000011100000001111101110000001011111111
000001110000000000000011000000010000101100000000000001000000001111110011
000100000000101000001011111100100000000111111110000011110000100111111011
000000010000100011110110000001100000010100000000111111110000000000000000
111110001111100000001010000010110000001011111010111101000000001111110001
111100101111110011110010111100001111100111111100111111101111101100000001
111111110000000100001000111010111111100111110011111101100000100011110000
000110100000101100100011010000000001010000001010001001010000110000001000
111110111111111011111100000001001111110100000001000001000000001111111000
000000000000000000000010111111001111110100000111000001010000100000000111
111010001111001111111101111111110000011000001101111100110000110100001000
111110100000011000000011111111010000111100000110000010000000000100000010
111111101111100111111001000001100000011000000001111111110000010100000000
000000000000010111111101000000000000011011111001000000110000011000000000
111111001111101111011100000000111111001111100100000010001111011111110010
000001001111111011110110111100111111011011110100111011001110110000000111
000000001111111011111010111101101110101000000000111111001111011111101010
000000101111111111111111000001000000000100000110000001110000011111111100
000010110000000000001011111010101111001100000011111011011111100011111001
111110100000001011111001111111011111110011111011111101111111010011111110
111101111111010100001011111111010000001100001011111011110000000100000010
111110011111111111111000000001000000000100000000111110001111110011111000
111101011111110011111100111101101111100100001111000000101111101100001000
111010111110011000001011111110001111111100100011111111010000011100101101
000010011111101111111010000010001111010011110101111101001111101100000010
000100010000011111111111111110101111111011111111111010111111011000000101
000001100000100000011001111101101111110000000010111001101111010100001010
000001010000011000001001111011111111000011110011111101111111001011110100
111111111111000111101111111110001111100100000101111111010000000000010011
111011101111000000001101000000000000000100011001111110010000011100100111
111110111111101000000011111101101110110111110010111111101111101011101111
111111111111101011111100111111011111111000000111111111111111101000001010
000011110000101011110101000011001111111111110001111110011111010111111010
000000010000111011111001111111010000001100000100000011111111101011111011
000000111111001011101001000000111111111111111110111011101111011111110110
000000011111111100000100000100000000101000000110000010001111110100001100
111110111111101000001010111111101111111000010001000001100000000100000011
111110101111110000001001111101111111101100000100111100101111000111110110
000010100000111100001101111100010000000000000110111100001111010000001001
000011001111010011110101111111111111111000000011000000000000000011111010
111111110000001011111001000000011111011111111001000000010000000111110110
000011100001001100000000000001000000010011111111000010111111110111110001
000001110000101111111101000000100000010000000011000011001111101011111001
111110101111010100001011000000011111011111111101110111101111011100000000
000000101111010100000111000001001110111100000010111101100000000100000110
111101001111010100000000111110011111100011111001111011101111001111110001
111100100000000000001011111100101111100100000111111111001111011000000101
000000111111101011111011111110110000000000000111111110001111100000000101
000001100000001100000100111111010000010011110111000001011111100011111011
000011010001001011110010000001011111010011101010000010011110111011101001
000010111111111011101100111110011111100111101111111111111111000111110000
111111001111010100000101000001000000100100001110111101011111001111111110
000001101111111111101010000010001111100111110100111111111111001011110111
111110110000111000010010000010010000100100010100111111100000111100001110
111010101111011011110101111011111110101011111111111001011110110000010011
111101111111100111110111000000000000000000000010000000101111100011111011
000001010000101000001000111110100000101100000111111100010000011100000101
000011101111010111111010111110111111011111111000111011111111101100000110
000100010001000100001100000001100000101000001011000111000000011000001110
111110011101011111110110111101001111101000001101111110001111001100001001
111110011111111100000011111110100000000100000011000011110000010000001011
111111111111010011111101111110001110111011111100111111001111000111110110
111101000000011100000011111111110000100100000011111110100000000100000001
111111110000011000010001111100111111010100000111111001011110110011101110
000000011111110011110010000000010000001011110101111110001111011011110001
000000001111010100000100111111001111100000001111111110110000011100000001
111110101111100100001101111100011111111100011001111001001111100000000110
111101101111010100000111000000001111001100001000111111011111010000000110
111110001111010011111100111100001111011100001001111100001111111000000101
111110110000010000001001111101011111110011111000111111001111110011110011
000100100001110000011011111111000000111100010100111001101111101000000001
111111011111010100001110111101100000101100010011111110110000001000001001
000001000000011000000010111110110000000111111111111110101111101000000110
111110111111110011111011000000100000000011111110111111000000010011110100
000011110001000100000001000100010000100111110111111111111110101011111110
111111111111010000000001000011011111011000010001111111100000110100010001
000000011111110100000010000000100000001111111100111110110000000100001010
111011001111100000000001111101100000000000000011111111101111111000000011
111110111111100100000001000011010000101000001000000100000001001011111011
000010010001001000001100000110001111111000000101111111111111111100001001
111101011111111011110101000001000000110011111111111100011111111011111010
000000100000001100000001000001111111111011111101000000011111101100000000
000001110001010100010011111101100000010100000000000000110000011000000111
111101011111000111111100111011011111101000001000000001000000101100010100
000001000000011011111110000001111111001011101001000001111110110111110011
111100011111110011110101000001010000010000000001000000001111110111110001
111110111111110011101101000000101111100111111010111111011111110000001000
000000010000100100001011000001100000101011111001000001011110111011011101
000011100001000100001000111111110000011111111011111111000000000000000010
111110000000111000010100111001110000100100001011000101110000001100001100
000001100000011100000011111010010000011011111001000010000000101111111100
111100001111001111111111111101100000100111111100111101111111100100000010
000011110000000111101110000011101111110000000010111010111111011011101101
111111010000100000001010111111000000011011110100000001111111000011010110
111100011111110011111100111110110000001100000100000010000000111100001001
111110100000010111111111000001101111100111111011000000010000011100000011
111111001110011111111011111111001111011100010011111100110000001000011100
000000100001000011111101000010010000010000000101000011100000001100000111
000111000001001100000111000101100000010111111100111100111111011111101110
111100111111100100000101000000000000110100011011111100011111010011111111
111100111111100000000101111110001111100011111101111111111111011011111110
000101010000000011111110111110111111100011110101111101111111011111101000
000001100000001000010011111010111111011000000101000001110000100111111110
000100010000101100000101000011010000011111111000000000001111111011101101
111110001111101111111010111101011111101111111101000000101111111011111000
110110111110110011110010111011010000000100001101111100100001000100011000
111100111111110011111001111101111111100011111011111110101111111100001111
000100110000101000000101000010110001001011111111111100011111010111100101
000011010000101100011000000001110000111000000010111110111111110011111010
111101010000001011110101111110100000001000000001111110011110110100000111
000000010000101000001001111111101111001000000110111110101111111000000000
111101001110111011101001000000011111110111111100111100010000000000000101
111111100000010011110010000010000000001111111010111111001111101011110111
111011001111100000000100111110110000011100001101111110010000100000000111
111110011111111000000111111100010000010100001100111111100000001000000000
111101101111010111111111000000000000011100000100000010010000010111110001
000011110001000100001111000011110000010000010010000010110000101100000001
000011100000000100000110111101111110110011111000111111011111010011110010
000111000000100100011110000100100001101000001000111110011111111111110011
000001110001001100011000000000001111101100000000111111101110111111111000
000000010000100000001111111101111111001111110110000000101110110111110001
000110110000011100010010000001000000110111111101000010001111100111101111
111010011111110111100110110111101111101111111110111001111111010100001110
111111001111100000001101000010000001101011111100111110101111111111101011
111101101111010111101010111110111111111000010011111010001111001100000010
000010010000100100000000111110100000111111101111000000100000000100000111
111101011111101000001000000001110000101111111100000000110000001100001000
000010010000110100001110111100000000011100000101000001011111111100001100
000001110001001100000110000010100000100000001101000010100000010111111001
111110000000000111110001111111101111110111110101111110111111110111111000
000010101111111000000101111101010000110011111100111111110000000111101101
000010100000100011111000000000010000000111101001111111110000110111111110
111110110000110011110100000010001111101011111100000011011111010100000010
111011101111001011111010111111001111001100000111111101011111100111111111
000001000000110000011111111011001110111100001010111110001111010111101111
000101100100000100110110000100100001110100011001000100010000001111101001
111110110000000100000100000010001111101000000011111110110000000011111001
111101110000000011111000000001100000010011111011000000101111100000000000
111110001111111111110100000000101111110011101001111100101111010111111111
111111101111000111111001000010000000001011111110111110010000010100000111
111101111111111011111010000000100000001011110110000000111111011011111110
111111111111001011111000111110101111001000000010000000011111111011111110
111011001111011111111010111100001111111000001010111110000000101100000001
000010010001100000000101000101010000110000010011000011101111110011111110
000010000000100000000000111111111111101111110000111100101110110011111100
000000110000010111111111111111011111100000000100000001001111110100000010
000000100000101000001100111100001111101100000011111111011111010000000110
111110100000010000000101111111100000000011111100111110110000010100001110
000010010000000111101010000001101111101111110101111100101111111011111111
111010111111011111111010000000010000001000000010111111010000010000000110
111110111111011111110111000001100000010011111000111111110000000011111010
111111110000010111101000000010110001001111110111000001000000010011101110
000001010000001100001010111101010000110100000100111001011111110100000011
000011000000001000001100111100101111111011111110111110001111100111110110
000011000000110100001101111100111111110100000001111111010000100011101110
111111000000001100000000111101001111000100000100000001111111111011111110
111101001111010111101110000001101111100111111010000010010001010011110000
111110100000011011101111000000110001110000000000000100110000000111101001
111100101111110100000101111110100000010011111001000001110000110100000010
111110100000001011111000111111011111110000000001000001101111111100000010
111011011111111011111111111111011111000011110111111111000000011100000100
111001101111010111110011110111001111100111111011111011011111100011111100
000001110001000000001010111111110000110100010001111101100000001011111010
000001001111011011111001000101000000101000001001000011010001000000000010
111110010000000011110101000001100000011111110101111110001111111111111110
000001000000110100001101000000100000100100000000111110101111100111101000
000011110000101100001110111110000000000111111011000011001111101100000001
000000101111110111111100111101111111111111110110111100110000001011110011
000000001111101111110111000000000000001000000101000010010000011011111001
111011001110101011110011111101011111000011101011000001110000011000001010
000001001111011100000011000010010000000111111001000000100000010100000110
000100000001010000010001000100000000111100000011111111011111111000000111
000101000001001000000011000000000001000000000100000000100000001100000001
111100111111101100000100111101100000010011110101111111011111101100001100
000000111111011000000010111111001111110100000010111110000000001100000000
111111011111101000000010111111100000001011110000111111110000000011111110
111110001111111111111001000000100000011100000010111101111111011111111011
111101001111010111110110111011100000001111111111000010010001000100000110
111101111111101100000001111110101111001111111011000001100000010011110101
111101100000011100000111111111100000001111111111000001100000000100000101
111101101111110111111110111100100001000100001100111011110000001100001011
000100000000000111110011000010010000001011111100111110001111001100000001
000101110001110000001101000010000001110000001010000100000001001000000110
111111001111111011111010111111111111010011110001111101111111010011110001
111110101111110011111100111110011111111011111000111110101111010111111011
111110010000000000000011111111001111111111111110000001011111100111101100
000001100000000011111101111101111110010011100111000000001111010111110100
111000001110111011110111111110100000000111110011000000110000101011101011
000000001111011011110110111101111111011011110111111111010000001011110001
000000100000111100000101000100000000001111110101000000011111010011111111
111110101111001111111110000000101111011011111011111111101111101100000010
000011100000111100001010111011001110111111110011111101011111110111110110
111010101111111100000101111011111111111000001111111010111111100100000010
000000010000000111111110000000100000001111111001000000111111110000000000
000010100000010100010010000000111111110111110111111110010000000011110110
000000110000000011111110111111111111111111110111111110000000001100000000
111110000000001111111000000001001111111011101111111111111111111011111111
111100111111111011110111111110101111000111110111111111100000010000000011
000000110000000011111001111111110000000111110011111101010000000011111111
000101000001011100010100000011000010011000001011000010000000001100001010
111111000000001011111010111111101111110000000011000000111111111111111010
111111001111110000000001000010001111110100000100111111100000011100000010
000110110000011111111010000101100000001000001000000001111111010011111111
000010101111101000001001000010000000010100000100111110110000000000000000
000000100000010100000001111111111111101011111111111110000000010100000000
111110111111110011111100000000011111110100000001000010001111100100000010
111001101111000111111000000010001111110111110101111111101111010111110100
000010000001001100001111111010100000001011101101111010001110001111111100
000011101111011011111100111101111111001011111100111011001110011111110011
000000101111110100000101111111101111111011111111111110011111111111111001
111111011111010100000101111011101111000111111010111101000000010011111011
000001110000101000001101111110010000000000000010111011011110100111111001
000011001111110000001001000100000000001111111111111101111111000000000100
111011011111001011110010111110000000010111111000000001101111101000001001
000010001111010111111010000011000000000100001001000010100000001000001000
000010010000110100101101000001110000101100100010111110101110110100000100
000001101111011111111110000000011111011011111010111111001111010011111111
111110101110110100000011111011100000000011110010111100110000001000010001
000000100000011100010001111100011111110011110111111010111111000111110010
000000010000000011110110111111111111000111111000111011001110100011111001
000000110001101100101000111111001111110000011101111111110000100111111110
000001110001001100100001000100010000101100010111111111101110110100001111
000000101111001111110101111111011111100000000011000001011111111111110111
000001011111110000000011111110011111110100000010111110101111011111111101
111010101110110111111011000010111111011000000101111111001110100111100110
111110101111010111100001000000001111001011111001000010100000001011101111
000100110000100000000110111110101110110011100011111110011110110111111000
111001111110101011111111000100110001110100001100111111110000000111101001
111110110000011100001111000000000000001100000011111101110000001100001000
000010001111111000000000000000101111000011101101111100111110001111110001
000001000000111000001110111100100000000000000001111101001111000100000011
111110100000010011111000000010010001001011110101000010010000011111110011
111110100000000000000011000010101111111011111110000001100000011000000001
111100111111000100000110111111010000111100001101111110101110101111111101
000001001111111111110100000010001111100000000010111110101111011100000100
000011010000111100011000111101000000001100011011111111010000010000001101
000111000001001100001001111111100000000111111110111001110000000000001000
111111001111010100000111111100101111001000000001111100111110111111101001
000001100000110100000100000001010000000000000001000000100000111100001011
111011101111111000010001000001000000010000101110111111111111001100000110
111110010000001111111000000000101111111000001001111101100000000000000001
111001011111101100001110000000100000011000000000111001111110110111110100
111011011110001111110101000000001111111011110100111100101111111100000010
000000010001000000001110111110010000101011111110111110101111011111111010
000011000001000100010000111110111111110111101110111011101111001011110111
000011000001001000010111000001010001011000000110111101001111001111111000
000101100001001100010101111011101111101000001101111001111111111000001010
000001101111111100001111000010101111011000000000111110011111111011110111
000001010000001000010011111111100000001011111010111110010000000000001001
000010000000010011100100000000001111010111111000000001110000000011111000
111110111111101000001011111101000000000100001101000000100000001100000100
000010110000101000101000000101100000111100011011000011000001000011101101
111101000000011000011010000000010000100000011101000010010001010000010001
000100110000000111110000111111011110111111110011111000011111000111111100
111010011110110111110110000011010000000011111001000001111111110000000100
000001000001010100001010111011011111011111111001111100011111100111101111
111110111111100011110001000000010000010111110101000000101111101011110000
000011001111100011111000000011010000010111111100000000000000001000000001
000010011111110000001001111111011111111011111001111010011110100011110100
000011101111101111101100000011011111100100000001000000111111100011111100
000100111111010111110011000100101111111000000111111111011111001100000100
000000110000000011110011000000001111100100000001111101001111001111111101
111110100000010000100000111011101111100111110101111001101111101000001000
000000001111111100011011000101100000100000000111111010101110001111110110
000001001111101100000100111111111111111000000010111111110000000100000101
000000100000001111110011111111000000001111111101111111011111001100000100
111110110000110000011111111110111111110100011111111110110000001100001011
111111000000000100000100000000111111110100000001111100011111100111101110
111110000000001111110110111110011111110000000000111110001111100011110010
000001100000001100000101111111101111101111111100111110100000100000000101
000000100000101011111011111111010000100100000000000001100000001100000010
000000110000011011110011111111001111100111111110000000101111011111110111
111111110000000100001110111110010000010100000111111111100001000000001010
111110000000010000000111000000010000010000000100000000011111101011111011
000010101111110000001001000001100000110000010001000001010000000100000101
111111101111101111101101111111101111110111101100111110010000000011101100
000001000000001000010101000010000000010000010010111111010000101000000010
000010010000101000000110000010010000001011111001000010100000001011111110
000000100000010100000010000000000000000100001100000000001111011111111101
111110100000001000010110111111001111011100001111111100101110100100001000
000001111111111111101110000000000000000011110010000000000000010011110101
111111011111011011110000000000111111100111111000111101001111111011111001
000001101111010011111101000001011111100111111110111110010000000011111010
111111101111110000001010111111010000001000000101111111010000001011111001
111111011111001000010000111111010000010000001100111101110000000011111101
000001100000000000001011111111101111111100001001000000011110111011111100
111110011111111100000000000001010000010011111000111111011111011011111011
000001100000001100001001111110110000011011111011111111000000011000000011
000000011111100111101110111110101111101011011101111111101111001011011111
111110110000110000001100000000000001000011111111111111000000100011111111
111111100000100111111110000001000000011011110100111110101111011111111110
111111001111110011110110111110111111101100000001111111101110101111110111
111110110000101100000111111110111111111111111111111111010000001100000001
000001001111110011111110111110111111110100000101000000101111010011111101
111110111111100100000010111101101111001011110110111110111111110111110011
000001000000100000000010000001100000010000001010111111111111110100001011
000000001111101111111100000000010000010011111000111110011111100011110111
111110111111110011101001111101001111111011100110111110100000000111011110
111101000000011111111100111111110000011100000000111110000000000011110010
000000011111101000010110111111111111001000000101111111100000010100000100
000001111111100000001101000011101110111100000011111110001110111011110110
000001000000010100000000000000011111110111111000111110100000100000000001
000000100000001111111111111101110000000000000010111111110000000111111100
111111001111110111110111111111111110111111110011111111011111101011111110
111111011111100111111110111111000000010100000001000000000000011000000101
000000001111101111110100111111011111011111110111111101011111111111101010
111110101111100111111011111101100000010011110101111100110000001011110000
000001100000001011111101111110101111010111110001000000010000000011101111
111111010000001000000100111111011111111000000001000000101111101011111101
111101101111111100000110111111101111000100000011111100111110110011110010
000010011111001000000000000001101111100100000010000000101111110100001000
000000010000011000001010111111011111101000010100000000101111111000001111
000001000000011000010000000000110000000100001000111111110000010000000010
000010110000100100001001000000000000000100000110000000100000111000001000
111110001111101111110110111111011111110011111111111011111111101111111101
000000001111101111110110111110011111011011110100111110011111100100001101
111100110000100011111101111110010000010111110110111100101111011100000001
111111101111101100010110000001000000010100001101000010100001011000010011
000010000000010100000110111111000000001100001111111101100000111100000010
111110010000000100000110000010001111101111111000111111000000000011110101
000011000000011100000100000010110000000111111000000001110000000111111111
000000010000001100000110111110100000011100000101000001110000010000000011
111111001111110000001000000000100000010100000000111101101111110100010010
111111100000010000010100000000001111110000010100000001111111101100000111
111110000000111000001111111111010000111100011101111110001111101100010100
111110110000000011111010000001011111100011111010000000101111010111110001
000000000000010000001111111110011111101111111101000001000000000011111111
000001010000110100100001111101001111101000011110111100111110100011111101
000000000000010100000100000001101111101100000001000000001111011000000100
111110100000000100000001000000110000000111111110000000011111100011111000
111010101111001000000001000001101110111111111010111111011111010111111001
000001101111110000000010111011111111101000000010111100111111011100000011
111110111111011100000000111110011111010100000100111110101111111111111110
111110011111011011111010111110111111010011111001111111001111101011110101
000000010000010011111100111101111111111100000010111100111110101111110011
000110110001010100000110000011000001000100010110000101100000111100000100
111101110000100111111000000010111111100011111001000010111111011111111000
111110101111111100000100111110000000000011111010000000001111101000000011
111101101111111100000111111110101111001011111110111111101111101111111000
000000010000001100001001111110111111100000000101111111010000001111111111
111110111111001111111000000010101110110011110000111100101111011111110101
111011001111110100000001000000110000011011111000111101000000000100000110
111011101110101011111111111111111111111011111100000000100000000000000010
111110001111001011111001000010111111110011110101000011000000011111111001
111101011111111100000011111010011111011100001000111111010000010000011100
111110001111011011111000111100100001000100001011000100011111010100000010
000000001111101011110000111101010000100100000011000011101111111100000000
111101000000011100000101111111011111110000000111000011000000001100000110
111111101111000011101011111111011111110011110111000001100001000100000001
111110011111001100000000000100011111111011110011000011000000000011110101
000000111111100011111110000000001111111111111011111110001111110011111011
111110101111110011111100000000100000011011111111111110110000000100000011
111110000000010000001000111101000000001100010010111111101111100100000101
