000001101111101100001010111110010000000000001000000010001111010111111100
000000011111101011111010000000111111100000000001000001001111101000001000
111111000000001000001111111111100000011100000100111111101111111000000010
111111110000001111111110000001111111110100000001111110111111011100000111
000000011111101111111011000001001111111100001010000000110000001100000001
111111110000001100000101111111110000001000000101000010011111101111111001
000000111111010100000000111110110000011111110100000001010000011011111101
000000110000101111110111000000001111011011111101000000000000000011111101
111101100000000011111110000000100000100000001011111110011111111011111011
111101101111011000000111000001010000000100000100111101100000000100001010
111110010000011100000001000001111111101000000110111101011111111100000011
000000110000100000001010000010100000011100001001111111111111011111111110
111111111111100000000110000001010000001000000101000010010000010111111001
111111010000001011111010000001011111010111111000000010000000100111111101
000001001111010100000101000000100000011111110011111100110000010000000111
000011000000010011101110000011001110110011111110111100111111011100000001
111110101111100111110000111101001111111011110101111101011111100011111001
111101110000011000000101000000011111100100000011000000001111011100000010
000011101111010111110100000001000000100011110111111111110000010100000010
111111100000011100001000111110100000000100001010000010011111011000001001
000000001111001011111101111110011111110111111001111101101111111111111110
000010100000001000001011000001101111110100001001111111100000001011111101
000000001111110000000000111101110000001011111011111111110000100111111000
111110011111101000000001000001100000001000010000111110001111111000001111
000010011111110111110111000000110000100011111011111110110000011011111110
111101101111100100000011111111010000011100001000000000011111111011111100
000000100000000011110110111111101111011000000111111110000000110011111101
111110100000010011111111000010100000010011110111000010001111110111111110
000001100000011011110110111111110000100000000111000010011111110111111010
000011100000011000001001111111001111100011111111111101000000010000001011
000001011111110000000010111110100000101011110110111101011111110100001100
000000100000010011110110000001001111110100000011000001100000010011111110
111111011111010111111110000010011111110000000101111111110000000100000000
111101011111111011111111111111101111110000001001000010001111011100000011
111100001111011100001111111110101111001111111000111110011111111111110011
111100111111111011111000111101101111100011111000111101111111010011110110
111100101111110011110100111101010000001011110111111101110000001100000001
000001011111100011110111111110111111110000000111111101101111110000000010
111110001111100000000101111110000000100011111100000001111111110100010001
111011101111010000000010000000101111011000000100000010001111110000001000
111100111111100111111001000010000000001011110101000000101111111011110110
111101001111111100010011111100111111100100001011000000000000000000000011
111110101111110000001010111110000000011100000000111101111111001111111101
000001100000101111111001111111100000011000000101000001111111110111111000
000000111111111000010000111110100000001100001111000010001111001011111000
111100001111001000010100111101111111000111111100111101101111100011101100
111100011111011100001001000000101111110100001111000010000000001000000011
111100111111110000001001111011010000101000011100111101100000101100011111
111100001111111100011000111011000000001100011010000000011111000100000000
000001010000010011110101111110011111010111111000111110110000100111111110
000000010000010100000010111100110000000011111101000001101111000100000001
000000101111001100000111000001101111001000000011000001010000001000001000
000000000000100100000101000000101111100000000111111110101111100100010100
000000100000010100000110111101011111101011111100000000100000001111110111
111110010000011011111100111110000000010100000110111110111111101111110110
111100010001001000010110000000011111010000001000111101111111101000001001
000000100000000011111011111101111111001011111110000010111111101111111100
111101110000001000000111111101001111011100000111000000111111111011111111
111101011111001000000001000000011111011000000001111111001111010111110111
111100000000100000001010111101011111100100001001111110011111110100000010
111110000000011000000100000010001111110000000000000010001111010000000001
000001111111011100001011000010010000011011111000000010111111011111110000
111111000000000100010001000001011111011000001011000000001111111100000100
111110101111011100001101111110010000011111111001111111101111111100000001
000000101111100011110011000010100000010011101010000001111110101000000101
000001111111110011111111111110000000010000000000000010100000011000010001
111100101111110100100001111100000001011011111110111110000000010011011110
000011111111111000001110000101111111100000011010000001010000010000100101
111110001111101011111011111100011111001111010101111101001111011111010110
111100111110010111110100111011001110101100000010000000011110001011100100
111101101111011111101100111101111111011011100101000000001110101111100110
000010001111011011101101111110011110011011110010000000111111000011110111
000000001110111000001011000011010000000100000001000011001111010000000100
111100011111011011111001111100011111010111110111111100011111101111110001
111110000000001000011000111011111111111100001010111110110000100111111110
111100111111001111111101000000110000100000010011000000100000001111111011
000001110000110100001111111101110001000100010011000000000000111000001111
111101101110110100101101111100011110110000111110111011110000111100100010
111110101111011011101001111100011111000011111010111101111111110011111001
111110001110000111000101111010001101010011100111111000111101111111010101
111101000000011000000110111001110000010000010101111000110000011100001101
111111000000101011111111000010100000000100000000111110011111111000000110
000011111111100000000011000001111111100000000110000010011111011100000000
111001011111001000000110111101000000110011111101111110100000010111101100
111110101111010011110001111010011111101100001111111010111110110100000111
111110010000000011110010000001000000100011101001000001110000010111110010
111110101111010000000001111101011111110000001001111111100000010011101101
111100110001110100111101111000100011000100110100111010000011001000000101
111110111111000100001111111111101110110000000011000001111111010011111100
000010110000001111111010000001101111110000000110000001101111010100001010
111100001111111000010010111111011110110100001111000000111111010100000101
111101110000011000000101111100000001001000001111000000110000110100000001
000000100000100100000011111111000000110100000101111110101111110100000010
000101100000011100001100000111011111010100001000000001110000011100100000
111110100000001000010010111011100000011100100011111010011111111100100100
000001111111111011111010000000111111110011110101111101100000000000001001
111111000000011111111000000100000000110000000000111111101111101011101110
111110101111111011111110000010101111110011110111111110001111001100000111
111100111110111000000000111101101111011100001111111011110001001000100110
000011010001000011111101000011100000100111111110000001101110110000000000
111101111111000000000110111101001111110011111001000001111111110000000001
000001100000101011111010111101111111110000000001000001110000000100000010
111111111110110000000000000000001111111011111101000001111111111100000011
111010110000000111111001000001110000101000001000000101010000011011110101
000000101111101100000111000001101111101000001011000000001111101111111101
111011101111100111111000111110101111101000000010000100010000100111110100
111110101111011111110111111111111111100000001100111110011111111011111110
111111000000101011111001000000000000101000000101111101111111100000000011
111111100000011100000100000010011111011100000011111110010000001000010001
000011100000101000000000000100001111001111111000111101101101111000010000
111101010000000100000110000001110000000111111001000011111111110111110011
111000011111111011111111000010000000111111111100000111101111101111110011
110110111111001111110101000001001111111100001011000011110000110100010110
000000010000001111110111111111010000000100000010111111001111010011111110
000000110001100011111010000011101111111111101101111110010000000111111011
111001111111010100000000111111100000001111111110111110010000011000010011
111100101111111000001001000001010000101111110111000001011111000011111110
000000010001011100010001000011110000111100000000000010001111111100001001
000010010000100111111101111110110000000000001000111111111111100100001110
000010000000101000011110111111001111000000010110111000101111101000100001
000001101111001111110010111110000000001111111000000001101111000111111100
111110110000011100001110000011010000000111110100111111001111100011111101
000000110000010100001011000001111111100000000001111111011111001011111110
111111001111011100010001111111101111010100010010111101011111111000010101
000000010000010100000110000010011111111011111010111111010000011111111110
000101010000111100001001000010100000001111101101111100011111100000000001
000010110000010000001011000010011111001111110111111101001111001100000010
111111001111111100000110000001000000110000001011111110001111111011111101
000011010000000111111110111101100000010111110111111111110000011000001000
000000001111011100001000111111001111101011110111111110011111011011111001
111110000000010100001010111100011111110011110111000000000000011100000011
111111011111011111111010000000001111111000000101111110001111111011110000
000001000000110011111011111110010000100100000001111101100000011000000100
111111111111111000010001000001010000011100001001111111110000000011110011
000000000000011111111110000010111111100100000100000001000000111000001101
111111101111101000000100111110101111111100000000111100101111100111110011
000000111111111000001001111110011111101100000110111110100000011011110111
111111111111101100000011000010010000001100001110111101111111010111110110
000010010000111000000110000001000000110011111011111101001111011011110011
000001000000000111111110111111010000000000001011000001111111010100000011
000000100000001111111111111111100000000000001000111100011111100011111000
111110000000000100001001111100010000011000001110111010111111011011110000
000000011111011011110111000000001111111000001011111111101111111011110011
111111111110110111110100000000100000110000101010111100111111111011110101
000001011111101111101010000100010000000000001001111101101111101000000010
000010010000000111111100000010000000011000000010111111010000000000001010
000001001111111011110110111110000000100000000101111111000000011000000001
111111110000000100001011000000110000011100001010111100011111100100000011
111100101111110111110110000001110001000000000010000001000000001011110011
000011011111100011111011111101111111111000000100111110011111001000000010
000001010000101000001110111110011111110011110110000000101111010011111111
111111000000111000001011111101010000001011110110111101001111101100000011
111111100000100111111110111101100000100100000010111110100000000100000011
111111111111101011111110000001001111111000000110111101011111011100000110
000000110000010100000010111110101111101000000000111101001111000011111010
000001001111111111111000111111001111100000000100111100100000001000000001
111101100000100111110111000000001111101111110111111111111111100000000111
111110100000100000001000000001101111100011111001111100010000000011110100
111111001111110011111111111100000000011111111000000001001111011011111000
111111110000010011111110111101100000101000001011000001000000101000000001
000011001111101011110011000000001111101100000010111111011111011111111000
111110001111110000001001000010010000011011111110000000000000001111111011
111101000000010000000000111011110000011000000001111101111110110111111100
001000001111110011110011000111100000000011111111000011001111100100000100
111101101111010100000001000000100000010011111101000000001111111100000000
000010001111010111111111000001111111110100000000000001010000000011111100
111111101111111100000010111111010000010011110011111100101110111111110111
000011001111011011110001000101001111110000000100000010100000001100000111
000000100000100100000000000000110000001111111010000000111111110011111000
000001110000011111111101111110001111111011111111000001101111111100000011
000000011111010111111001111100111111110100000100111110000000011111111101
111101101111111111111100111110110000100100000000000001001111111111111010
000001001111010111111110111111100000000011110100111110001111011100000011
000101111111011100000000000011011111001000000101111110001110101111111011
111110001111111000001000111111101111010111111010000010011111110111111100
000000101111101011110000000100110000001000000011000011001111101111111110
111110111111010011111101111100111111010000000001111110011111010111110111
000001111111111011110101000010100000010111111001111101110000101000000000
000010000000011111110111000100101111100111110001000001001111101011110011
000001001111110011111101111110101111001111111011111100111110111000000010
111111111110110111110001000010001111111011111100111101111111011000000010
000010000000010111111101000011000000011100000111000100100000100111111001
111110001111101100000000111111101111100011110110111010100000000111110111
111110101111011011111011111111000000010011111100111100110000010011110100
000000111111101000000111000001111111110111111101000000101111000000000001
000010000000000011111111000000000000011100000100111111001111010011111100
000101011111010100000101000010001111000000000001111110111111001011110110
111111101111010111110010000001100000000011110110111111111111001111111111
000000110000101111110110111111010000011000001010111101100000010000000011
001001001111101111111111000101101111011111111100000101111111001000000010
000001001111101000000110000001101110111111111011111111101110111011111110
111110111111101100000011111110001111011100000100111101010000010111110111
111101000000000100000011111011010000001100000110111101011110011011101100
000000101111101011110101111100101110111111110111111100111111000011110100
000000011111100111100100111101111111000000000000110100011110111100001000
000111100000111100001101000101000000011011111110111101011111110011111010
111011011110111111101010111101101111100111110110111110001111110100000101
000011010000101011111100111101001111110011111100111101101110101111111111
111000111110100111101111111001101111101000000001110111111111011111111101
111111100000000000000100000001000001000100001000000101010000111011111110
000100000000010000000001111110100000000100000010111111111111001111111011
111100011111010011111101111100110000000111101110111110100000001111110100
000011000000011111110000111111100000000111111100111101011110111000000100
111101111111101011110111111111001111010111110001111110011111011100001000
000010000000100011110110000000001111100011110001111110101110111111111000
001101100010010000001100001011000000101111111001000011001111010111101100
111101011111101111111110111100110000000000000011111110000000011000000101
111101000000000000001101000101110000001111101011001001000001100011110110
000000111111111111110100111111001111111011101111111110100000011111101111
111110011111101000001001111100110000000011110101111111100000001111111101
111111100000100100000111000001110001000011111111000011111111011111111110
111100011110001011011000111011101101101111100011111000001110010100000001
000100010001010011111111000011111111110011110110000011001111100111110011
111010011111100100000010111111010001001100000100000010100000000111111100
111101011110001111011110000000001110101111100010111100011110000011100110
000101101111111011100001001000011111101111111100110111111110011011110100
000010101111110011110100111111101111111011111010111110011110101011110000
111111011111100000001110111110110000010111111000111111101111110111110011
000101110000001000001010000000010000101000001000111110011111010011110001
000100000000001000000111000000010000101000000111111111001111110011111111
111100110000010111111001111111111111100111111010111100100000001111110111
000011000010010000010110000011100000011100000000000011001111000111111110
001000010000101011111111000011010000011111110110000000111111011111111010
111110011111111000000010111111010000001011111011000010001111111011111101
111101110000001100001010111011001111110000000100111100010000111100010010
111110111111111011111110000000001111111100000100000010100000110000010001
001000111111101111111101000001011110011000000010111111001111110100000101
000010000001000011111011000000110001100100000000111110001111101100000001
000110100001010100010000000011100001001000001000000111010001101000010110
000110010001001000000010000110110001000000000011110111101110110011110100
111011101110111111111000110111011110010011101101111110100000000100001101
111010001111000011111011000110100001001100001100000111010000100000000101
000011011111110100000101000100000000111100001101111110100000100100000010
111010011111100111110110000110110000110100001100000011100000011111111001
000000111111000111110101000001000000000011110011000011001111000111111110
000011111111100000000110111111101111101000000010111111000000001111111110
000101100000010011111011000110010000010011111100000001011110111111111101
000011110000110011011010001110010001000111101010000001111110000111110110
111100011111110011111111111101100000101100001110000001100000011111111100
110111111110101011100010001110100010101000001010001101000010010011110100
111001101101001111011001000100001111111000000010001001110000100100000011
000000110000010100000101111100101111110111111010111110000000011011111101
111111100001011000001101111111000000010111101101111111000000111011111110
000100100000111100011010000010101110110100000101111010101111100011110011
000000101111000111101001000101000000100011110001000011110000111011111001
111101000000011100010101000100000000010100001110000001000000011100001001
000111110001111100010111000000011111101100000010000000101111010100000011
001010001110111011100111000101111100111011111010111100001101110100000011
000101100000110111111001000011101111111011101101111100111110110111110100
111110100000011000000011000000100000011100001011000000011111101011110110
000010000000111111110110000111000001111111111111111110110000100111101100
000010110000010111111001000101101111110100000000000011010000101000000011
000010100000000100000110000001110000100000001100111011111111100100000111
111111110001010100000011000100010001100100000100000010001111111111111101
000011011111111111100110000111111111111011110011000011111111100011101101
111111001111011000000001111111100000101111110110000000100000010000000000
000010011111100011110010000101010000101100001111000010000000110100001010
000000100000000011110100111111011111101100000101111111010000100011110011
111011101111010011111100000010100001000111100111001110010000000111011101
000001101111110111111110111111100000011100001000111101110000011100000100
111011101111100111111011111101111111010111101100111111100000001111100010
111001111110110111111010111011001111010111111111111111100010000100000101
111110101111010000000001000001001111111100000011111111100000110000001001
111011011110011111111100111011101110111111111000111001110000001000000011
111111101111101100000101111100100000000000000101111110110000110100000011
111111101111001111110011111100001110111111110101111100010000001000001000
111111100000011111111001000000001111101111101101000001111111010111110010
111100101111010111111101111111011111011111111110000011010000110000000000
111101011111101011101110000001010000010100000000000100100001010011111011
111101111111100000001000111100001111110100001011001001100011101000001000
111110111111011000000001111100101111110011110011111010011111100100000101
110110101101111011100110111010011110011111101101110010011110000100010000
111011110000010111111110111010111110000111011010000000111110110111100111
111101011111100111111111000001011111110011111001111101110000100100000100
111100101111000111110110000001101111101000001001111101111111101100001000
111011001111010011101011000010000000000111110001001001100000100100001001
111010001111000000000100111011001111110011110101111110110001000011111111
000000000000011100000001111111011111110111110001000010101111011100000011
111101111110111111110000000010110000100000001010000111000010110000000111
000000010000100100000111000011110000100111101001001101100000010111000001
000000011110101100000001000011110000110100000110000101010001100000000000
111101110000001100001000111111111111000111110010111110000000011011111100
111100111110101111111011000001111111101011101111000101000001000000001100
111110011110111111111100111111010000011011101100000110010000100011111110
111110010000000111111011000000001111011111110001111110011111010011110101
000001001111100000000001111111011111101100010001111001110000100000001010
111110111111110100000001000011110000000111111101000101100001101100000101
000000101111100100000010000001111111110000000101000001111111010011111100
111101010000001000001000111111010000000100000010111111110000011100000001
111101011111011011110100000000000000011011111110000010101111110100000010
000010100000010100000000000010101111100000000011000001101111100011110110
000000111111101111111010000000101111011100001010111111111111110000001000
000000110000001011111010000010101111110000001001111111110000010100000110
111101111111100011110100000010000000100111111011111110100000000100000100
000000101111110111111000000010011111100011110100111110100000000100000011
000001001111100111111011111110111111101011110110000000101111110011110100
111110011111100111111011111110011111111000000011111101111111111011111100
111110101111110111111011000000001111011100000010000010100000100111111010
000000111111010100001001111101001111011011110110111101010000000111111100
000000101111111111111111111110111111100111110110000001011111100111111101
000001011111110111111101111110001111011000000101111111010000011000000000
000000001111010100000000111111011111100111111101000000001111011100000000
000001110000001000001010000001011111011111111011111111010000001111111111
000010010000000111111000111110111111011011111101000001010000000011110100
111101100000001111110110111101111111100100001011111111001111101111111000
000001111111111000000010000000100000001100000111000000000000000111111111
111101111111110100001010111110001111100011110100000000001111010111111010
000010100000010000000110000000011111011011111010111101101111100000000100
111111000000101011110111111101100000101111110110000010010000001011110101
000010011111110011111011111101111111011000000010111101000000010011111101
000000111111110100000011111111110000001111111011111110000000000011110111
111110011111010111111101111110000000100000001000000000010000011100000110
111101011111111011111110111110010000001111111100111110101111111111110111
000010010000011100001010111111100000001111111111111101100000010111111000
111110111111101111110101000000000000000111111111000001110000000011111101
111110011111100111111110111110011111100011111110111111011111100000000110
000010011111100000000101111110101111111000001010000000011111010100001001
111111111111101011111010000010010000000000000110000001111111101100000000
111110000000100111111010000001110000001000000110111101111111111100000101
111111111111111100000101111101111111110100000101000001010000101011111101
000011110000000100000000000000100000100111110111000000110000001011111011
111111111111110111110011000000001111101111110010000010101111101111110111
111100101111100100010000111111010000001100000010000011001111100011111010
000101011111001100000001000001110000110100001001111101010000010100001100
111100111111101011101110111110010000110100001010000000011110110011100111
111111111110111011111010000010100000011100010101000010101111110111111000
000000100000011000000011111111111111111011110011111110101111011011111010
000001001111000111100101000010111111010100000111111101010000011100001000
000001010000001111110110000010010000011100000001000001011111111111111100
000001011111011111110001000011101111011111111100111110100000011011110101
111110001111001111101111111101110000011100000001111100111111011111111001
111110001111001100000110111111000000110011111100111110000000000111111000
000000010000010000001010111101000000011000001110111110110000001100001001
000100001110001011111111000010000000101100001011000001010000100000010111
111101011111110011111000111111101111010111110101111100111111001100001000
111101111101110011001111111110111101110111111010111110111111110000001100
111100111110000111011010000011011110011111111001111110011111111011111000
000010101111010011110110000001110000000011111001111111001111010011110110
000011000000111000000001000011001111100100000000111111110000100000001100
111111010000010100001010000010000000010000010001111101010000000011110010
000000101110011111100100111111111111111000010000111111110000100000010010
000000010001001000001100000010110000101111110111000001000000101011111100
111101111111000111111110111110110000100100001010111011110000011000000010
111100000000010100011101111110010000101100100000000000100000010111111101
111111110000000011111100111111010000111000001100000001010000100111111010
000000110000100111110101111111110000000111111101000000010000010011111101
000011100000001111101100000011001111111000001010000000011111101100001010
111110000000001011110011000010010000011011111110000011110000110011111011
000000111111111111111111111101100000010100001100111101011111011011110101
000100111111101111110100000101000000000011111101111111101111101100001000
000001101111011111110100000011010000011011111101000001010000101000000000
111110011111001100000001000001000000001111111001000001011111110011110100
111110011111111111111011000000101111110111111000000010000000000100001100
111110111111111111110101111110100000101011110110000001001111010011111110
111100001111000011101110000000010000010111101111000110000001001000010010
111110111111100111110100111101000000010011111111111100100000010011110010
000001110000001111111011111101100000111000010000000001110000001100001101
000001010000011000001100000010000000001100000010111110000000010000001010
000010110000010100001010000011100000001000010011111111001111101000000101
111110000000010000001010000001001111100100000000000000111111101111110100
111011111111111111111010111110010000001011111010000001100000000111111011
111110000001000100010001111110101111100000000010111110001111100011111000
111110010000010100000110000000011111111111111101000000100000011011110101
111100101111111011110111111101100000001000000111111111010000001011111010
111111110000001011111110000010011111010111111000111110100000111100001011
111110110000011100010000111100111111000011111111111111110001011000010001
000000111111111000010111111111001111101000000011111111001111011011111001
111110010010011000111101000000110001000111111010111100101110111111110100
111011000001100000101100111110011111101000001100111111111111001111101011
000001111111100000001011111111100000001111110101000000001111100111110111
111001001111000011111010111111000001000000001001111101110000101100001011
111111010000010011111100000011101111110011110110000110010000111000011001
000001110000010000010001000001101111110100000000111111010000000011110101
111100111111101011110101111101000000001011111101000000000000100100000111
111110111111110011111100000000110000010011111011000000010001001000010010
111101111111010011111011111110001111100011101110000011100000000100010001
111101001111110000000101111111010000100111111000000011010001000000001000
000000001111000111110110111101001111111011111110111101000000101111111110
111011111111101011111111111111101111101111101110000010110001000111110111
111100101111101011111110111110011111110011110011000010000000111000000100
111110000000101011111001111110010000000100000101000010110000101011111001
111011001110011011110101111111011111111111101101111100001111011000000101
111100101111010000000100000001001111101000000110000001110000100111111101
000000000000000000001101000000101111011011110010111100111111101011111110
000000111111010100000101000001111110110111110001000000011111010011110010
000000001111011011111111000000001111110111111100000000011111101000001001
111011010000001000000111111011010000110100001101111011000000001111111010
000000010000010000001010000010011111111100000010000000110000010000001011
111110001111010011110101111101001110001111110100111110111110101111100100
111011011110101100000001111101001110100011111101111100101111000011100111
111111101111101111100011000000001111110011101100000000001111011011011110
000010111111100111110010111111001110111111110000000001100000000111101011
111111011111010000001100000001101111010000000011000001110000001011111011
000010001111101011100000111110011111101111110110111101001111100111111011
000001001111110000000000111100110000100000000110111100010000001000010110
000000101111011111111101111101001111100111111111111101100000100100000100
000010100000001111111110000001000000011000001000111100100001000100011001
111101011111111100000101111100010000110100100111111100000000010100011110
000001011110110111101101111011011110110011100100111101101110100111110100
000010011101111011000100111110011101011111001001110111101101101111001010
111110110000010111110100111101110000101000000100111011110000010000010110
111101110000011011111101111101111111100011111000000000110000100100001010
111111101111000111111011111111001110111111110010000000001110000011101111
111111001111001000000101000000000000011100000100111110000000011111110110
000001001111101111101111000000010000000000000000111101101111111000000000
000000001111001100000011111111001111010011111101000000111111010111101111
000000101111111111111000000000101111001000000011000000010000000011110111
000001100001000100011010000010010001001000100110111110100001010100001000
111111001111010100001101111011111111110000000011111111001111111011111100
111101101111011111111010000000110000000011111011111111001111111111110101
111111110000101000010110111111100000010100011001111100010000001000011110
111111010000101000000010000001000000110000001110111100100000111000001011
000001101111110100000101000010011111111011111000000010001111111011111100
000010010000011100001110000001101111101000010011000010111111111100010011
111111110000101100000000000000111111111000001000111010110000111000011010
000000010000001111111000111110111111010111111010111101101111110000001001
111011000000100111111100111101110000010000001011000001011111110111111000
111110011111111111110111111100111111101000000010111100011111011000001000
000001001111000111100101111101100000001011111011111111001110101111101110
000010000001001000000110000010010000100000001100111011010000111100001001
111110111110110111101011111100001111010111110111111111100000110111111000
000010100000101011111011111100101111111000000011000000010000010100000001
111000111110010100000010111000111111001000000000000000000000100111110011
000110110000111100000010000010010000100111111111111100111111111100001011
111111100000011100010000000010010000111100001000111110100000110000000100
000010111111101111111011111101100000100000000010000000010000101000001011
000000001111011011110101000001011111111011111000000001100000000100000011
111111101111100011110110111110011111010100000011000010110000010011111110
000001011110111011101111111111001111001111110101111111110000000011110000
001010010000000111101011000001010000100000000001000001000001011011111111
111110011111101011111101111100101111010000000001111111110000000011111111
000101011111010111011011000001001110101111011010111110010000011100010101
000101110000010111110001000001011111101111101110111101101110111011111000
111101011111101011111001000001111111010100001011000001001111100000001001
111110001111100000000000000011001111011000000010000000111111111000000110
111100101110100011110101111010001110111111110101111111001111110111110000
000111100000000111101011111111111111101111110001111111110000010111110010
111011011111100100000101111111111111111011111110111101011111110000000000
111111011111001111100110111100111110110111110001111101011111101011110001
000000011110110011100010000001101111101011101011000010001111110111110010
000001100000011100000000111011111111011111110100000001100000110111111010
000000100000001011110111000000110000001000000001111110110000000100001010
000111110001001100000000000000100001000111111001111110000000100000000100
000011100000101111111111000010110000100011110111000000010000000111111010
111100011111101100000011111101110000100000000000000000101111100111110110
000010010000111000000111000100001111111100000110111101000000110100000110
000111110000101111110010000011110000100111110001000001100000111111111110
111110101111110000000010000000011111111111110111111101001111110000000100
111111111111010011111110000011111111010011110001000010000000011011101001
111101001111101100001110111110101111111000001000111111011111101011110111
111110000000100000001110000000001111101000000110111110000000101000001000
111100111111100000000011000010111111101011110001111111001111011000000101
111111111111101011111010000000111111110011110100000000111111110011111010
111011111110110111111100000000001110111011110000111111000000000100000010
111111100000010011111011000100011111101011111000111110100000010111110100
111111110000010111111011111101101111100100000011111111100000001011111011
111101001111010111111010000001110000000000000000111110111111001111111110
111100011111101011111101111100101111010100001001000001010000010011110100
000000100000011000010101111110010000010000000010111111110000010100001100
111101011111110111111101000001011111101000000001111110101111110000000010
111110001111111000010001000010010000010000010010000001101111101100000000
111011110000011000010001111110111111110100000101111111111110101000000101
000001110000000000000010000000001111010011111010000001111111011111110101
111101110000001111111010111101111110111100000010111110101111101011101110
111101100001100100010001111101010000100100100000111100110000001100011101
111101010000001011111000000000101111011000000110111111010000011000000001
111110111111011011101110111101011111010011100110000010011111001011101100
111101111110110111111101111110011111011100000010000010100000011100001001
111111010000010100001100111100101111011000000111000001001111010000000111
111110001111100011110011111110001111000011110100111110110000100111110011
111100101111001111110001000010101111100111110100000001011111100111110110
000011100000100100001011111111010000010000011000111001010000011100011001
111100111111010111110010000010111111101111110101000011110000010100000110
000010010000100100001010000010010000011100000001111111111111111011111000
111110100000001000011011111101001111010100010111000000101111111111110111
111101110000010000001000000000011111101100010001111110100000010111111111
000000011111011011110101111101100000001000000000111111001111111000001010
000001110000000100000110111111101111100011111000000010111111111011110010
000000010000010100001010000001001111111000000111111110100000010100010010
111101100000000100000100000001011111010100000001000000110000001111111111
111100111111001000001110111100101110000111110001111110001110101000000110
000000101111111111111100000001011111110000000110111110000000010100000110
000011100001011000101001111111001111110111111101111110011110111100011001
111011000000001000000011111110001110110000001001000000000000000000000111
111111011111110100010011111111001111001111101011111101001110100111101100
111011100000000000110110111111001111011000001111110111101110000011111111
111111111111010111110111111010001101111011110100111110101111011100000010
000011101111100111110101000010010000011000011100111111011110100011111011
000010011111101100001011111100100000001100001010111011001111110100001001
000100100000110000010001000010010000111100101000111011101111000011110111
111110000000010100010001000000010000011100001011111000101111111011111010
111110101111100000010001000010001111010111110101111110011111110011110100
111111010000010000010100111101100000110100001001000000000001001111111010
000001110000101100010110111110110001000100011000111001010000001011110111
111110101111000111110110111110101111010100001101111011101111001111111101
111110111100100011011100111100110000011000101010110100001101000011001001
000011110000111111111011111111110001000001000001111110111111111000001011
000010100000000111111011000001100000001100000011000010010000000000001011
111101111110101111111010111011111110010111111000111110101110111000000110
111111100000101100101100111111000000011011110110111010011110010011100011
000011001111010011111111111111000000110000110010111111101110100111110001
000000111111011011110011111011001110010111101000111101011110111100000010
111111100000000100000010111110100000000011110010111110111111001111011011
111001010000011000101000111100010000111011101001000000100000111011101000
000010110001000100010110111100111111011000000000111101111110110011111100
000000001111100111111110111100011110111100000011000001101111000000000101
000100110001010000110001000000000000110100101010111000011111010100011110
000010010001111100011011000010010000010000000100111111100000011100010100
111010111111101000011001000001000000011100001111111110111111000011111001
000000001111000111111001111110101111010100000100000000001111001100001001
111111010000011000000111111100000001010000010101111111000000111000001101
111111001111111011110100111101010000000111110010111110101111110111110100
000111010000111100000101000000010001000000001001000000010000111100000111
111110101110111000000011000000111111010011111011000001001111010100000001
000010001111001011100111000010010000001011110001000100100000011000010000
001000110000010011111101000001001111101011111001111010110000000111110111
000001011110111011111101000001101110110111111010000100111111111100000001
000110110000111011110111000100011111100011101100111111110000111000000101
111110111111101111111111111000101111001100000001111110000000000100001101
111110001110101000000001000111100000010011111100000011100000111111111011
000011010000010111111100000001101111101111111000111111010000101100001001
111110101110110111101110000101101111110011111001000010010001011000001011
000011001111001111101000000100010000001111101101111111100000010011111100
000000111111011011110101111110010000011011110111111101110000001111110111
000000111111000111101110111111111111101100000100111100101111100100000011
000110100000010011101101000100110000011111110100000000101111001100010000
111100111111001111111100000001010000000111111110111110110000010100000111
110001111101100011011110000111000000010011101011000010100001001011111101
111100111101100011010110000111100000000111101100000110110000101011111001
111110100000000011110111000000110000000011111111111111010000100000001001
000110000000111011111111000000111111111000000101111110100000010100000110
111111011111100011101111000011010000010100001010111110000000010000000111
111011001110101111111001000000011111111011111101000100001111100100000001
000001101110111100001000111100111111001111111100111011101111000111111010
111111011111011011111010111001111110011111110110111011101111011100001111
111001111101110011101011111001001110001011101100111100111110100111101001
000100011111100111111110000100011111101000000100000000000000110100010011
000001101111101100000010111110011111100111111101111011101111011011111001
000111001111101111101001001100010001010100001000000000000000001000010110
000011000000000011111001000100000000000000000101000110100000011011111110
111100110000001011111100000000011111100011110010111111011111101111111000
001010000000010000000001000110010000101111110100111001111110110111101110
000001001111111111110001000100101111111111111100000001011111110100000011
111101011111100000000101000010111111110011110101000000101111010100001100
000110100000101000001000000101011111110011111001111110010000101000000011
111101000000000011111101111110111111000011111000111111011111110000000010
111100010000000111111100000100111111101011111101111100101110000111110001
000010001110101000000000000010000000000000000110111110011111110111111001
111111010000000100001110000110100000101100001110000100101110110100000000
000001111111000111111101000011110001110000010101000101100000011000000010
111111010000110000001000000011100000010111110101111101101111010100001010
111111111110100011110100111101000000001000010100000110000001111000001011
000010100000010000000100000100001111110100000111000000011111010111111101
111100011111011111110001000000011111110100010111000110000001000100001111
111111011110111011110110111110100000001000001010111101010000001100000000
111110001111110111111100000010000000100000000000111101111111110011110001
111101111111111011110001000001000000001100010000000001000000001011110001
000010001110100111101110000001110001010100011000000110010000010111111001
111101001111010011101111111100110000000000000000111111000000011100001010
111111101110010011011101110100011110110100001110001101100100000000100100
000000011110101011011100111111011110111111111001000110000010000100011101
000001010000001111111101111111110000011111111101000000001111101100000010
001010100001000100000110111111101110111100000110111111110001001100000001
111010101111000100000100000101010000100100010011000001111111001111110110
111101111110001011011110111101110000000000001101000101010000111100000100
000000010000110000000010111100001110111111111101111010101111011100000101
111001111111010000001010000010110000110100010100000110011111101011110110
110101001111100000001010111010100000000100001010110100101100011011001110
111100101110111111111110000000110000010100001110000110000000011000000001
000010000000011011111011111101100000000000000010000000000000001011111111
000110110000000011110011001001000000011100001111000011110001000000000111
000001010000101011110111000101001111101011111011000010100000001011111110
000000111111100000000110111110000000011111111110111101101111111100000101
000101001111100011110000000001101111110100000011111111011111011111110111
111111011111101100000100000011000000010100000010000011010000010011111100
111110001111010000000000111111111111100011111011000001010000000100000000
000101110001000111111100000001010000110000000000111100001111101000010000
000001100000010011111000111111001111000111110110000000110000101011111001
111111110000101011111100000100100001100100010010111100011111110100010100
000011111110011111111010111100001110101111110001111010101111000111111100
111110101110111011110110111111100000100111110110000100101111011111110110
000001111111110011101010111111110001000100000011000001111111110011111110
000110010001101000010000111101100000000111111010000001010000001011111011
000010011111111011101110111110001111100000000100000010010001010000000011
111111110000001111111101000001101111100111110001000000101111110000000111
111110001111000011101111000010010000110000001011000100110001000000000101
111111011111100111110000000100100000000000001100000011100000110100001011
111101011111101111110111000001010000001000000101000000011111100111111110
111110111111111011111000111111010000110100010000111110100001000000000001
000011111110010011111010000011110000100000010100000011111111100100001010
000001001111101000000011000001011110111011111100111110010000100111111011
111110111110011011010001111101011110000111110100000110100000011111110100
000001111111101011100110000011101111101011101001000010110000110100010110
111110000000001000001000000000111111010100001000111101011111101100000110
000111110001000011111111111100111110010011110010111010101111101100000110
000000010000011011110001000101100010010000011100111101111111101011111101
000001001110001011101101111100011111110011110101000011010000011111111100
000001001111111111110101111111001111101111110000111101011110100111111111
111101010000000111110011111101010000101100001011111111011111101011110011
111011000000001100000010111110110000111000000000111101001111011111110011
000011001111100111110001000011110000111000010011111110011111001000000000
000001001111011100000001111100111111010011110101111011111110111111111001
000011001111111111110101001001010000111100010000111111110000011000010000
111101000000001111101111000001100000101111111000000010110000100000001110
111101100000000011110000111101010000100111111001000010010000001100000011
000010011111011011110011111101011111111111111111111100001111010111110010
000000011110111011111000111101111111110000001100000010111111110000000001
000010111111011111111100000011000000100100000011000000101111111011111110
000100111111011011101111000100101111110000001001000100110001001100010001
000000100000010000000101000000001111011100000111000000010000011011111001
111110001111011011110101000111000001000011111100000101001111110111111111
111111001111111000000101111111000000100011111110000000000000000100000001
111101011111101011110000000001011111110111111000000001001110101011100001
111011001110010011101010000001010000101111110010000001101111110011111101
000111010001100100001101111111010000000000000010000000100000110000010000
111111001111000011110100000010011110101111101111000000100000100011111101
111111011111011011111111111111000000100100001010111111100000101111111111
111100001111111011111110000011001111110011110100111110110000101100000100
111110011111111000000001000010000000110111111001000010001111101000000000
111110001111110011111000000011000000101111111001000000000000010011111101
111101100000011011111110000001111111111011110111000010000000011111111000
111100001110100000000101111111101111111100000011000100100010001100010010
111101010000100000000101111110011111100111111101111111100000100100001001
111100011111101111111001111100111110000011110001111101001110111011100010
111010100000000000001110111100001111000011111101000001000000101011111011
111111110000010000001000000001000000000100001001000000000000001000001011
111101101111110011111000000000101111001000001000111111010000001100001010
111111100000000111111011000011000000110011111001000100010000101111111000
111001000000001100010101111011011111101011111001000001101111110111111101
000010111111110111110100000010000000001011110001111111001111011100000111
111111100000101011110100000000110001001000000100111111000000100111110111
111010001111110100000010000010010000100011111000000010101111110111101000
111110111111010100000011000100110000000000010000000011100000000111111001
111110001111101011111110000000101111111111111111111101100000110000001010
111101111110111011101111000011001111101000000100000010100001101100010101
111011101110110111111111111111011111011011101110000101110000000111111000
111110010000011100000010000001101111110011110010000001100000010100000100
111100001110100100001000000000010000010000000101000010100000110000000101
111011011111110100001000111110101111110000000101000100000001010111111011
111110001111011111111010000011001111100111111010000010100000101011110111
111010001110111011111110111000111110101000000001000001001111100111111001
000010111111111011110101000000101111110111111111111100100000011011111001
000010010001000111100101111011111111010011111110111100111111111000001110
111100001111101000001000000100101111011011111111000011011111110011110100
000011101110111100000011111100011111001011111010111010010000001100000101
000010010000111100011010111100111111010011101111111110101111101100001101
111100111110010111101111110111111101111111110000111111011111101111101111
000011000000110000011110000001110000101000000001111010011111000011111000
000000111111111000000100000000010000001100001010000001010000100011111111
000101010000101100011010000010100000010000001000111001111110100111111000
000001010000111011111110000000100000011000010000000000111111111100010110
000001000000011011111100000000111111100111101011000000010000011000000101
111101110001010011111011000001111111110111110101000000000000100000000101
111110110001011100101101111111111111111011111101111101011110111100001011
000010100000010100001101111101000000111111111110111111001111001000000011
000011010001011000110101111101100010010011101011110111011101110011001001
000011000010000000011100000001010010110000100000111010111111011011110001
111110100000011111110110111111001111010111111001000000011111110100000011
111100101110010100001011111111000000101000000101000001011111011111101000
000111010001001111100100111001001111001111101100111010111110011111110100
111110100010000000010101000010110001000111101101111101001111000011110001
000000101110001011100111111110011111000100000101000101011111111111110000
000010000000000011110011111111111111010111100001000000101111100100000101
000100100001000111010001000100110000101011010010000110000001001000001000
000000000000101000000110111101011110011111110111111110001111100000000100
000001111111010111111001111111011111110011111010000001100000000000000100
000001110000010100101011111011010000100100010010111110110000000000010101
000110010000111000010010000000010000111000000111111100100000001000001111
000001011111001011110100000001101111011111111100111110010000000111111100
111100101110111111111011111111100000101000001100000001011111111111101101
111110100000111000000111111110100001001011111101000000010000001000001001
000000011111010111110101111100001111100011111000111110011111111000000011
111111010000100100001110111001011110000011111000111100111110111000001101
111111011111011011110110000000011111101111110100000001101111100100000011
000010110001111100011001000010000000000000001010111110001111001000010001
111001111111111000001101111010101111011000000110111011101111000000000101
111111010000000000011111111111000000100011110000111001111110010100000110
111000111111101000100010111101000000000100011011111010001101111111111110
000001111111011111110101111100111110010111100110111111011110110100000110
000000111101110111110000111100111111010000001001111101001111010000000110
000000110000000011111110000000001111110000000000111101001111011100010101
000000011110011111101101000000110000111000001110111011111111010000000110
111100100000110111111100000000110000110100010001111011011111110000000011
111110010000010111111100111111100000010111111010000001100000000111110101
111111010000110100000100111110000001010100011101000010110000011100000110
111011001111111000011010111010100010100000101010110111100000011011111001
111111011111001011111110111100000000100000001100111011011111111100001011
000011011011110011011101111110010000100100001001111100011110101011100110
000101000000000111001011000001100000101100011111111111010001100000010011
111111101111010111110101000000111111110000000110000010000000000011111100
000010010000100000010000110111101110001111111101111010001111011111111110
111111010001000100010110000000100000101000010001111101101101110011101110
000001001101111011110001000000000000101100011001111100111111111000000110
000010011111111111111111111111101110011011111010111111001111000111110101
111110010000000100000110111100010000110111110110000001111110111111011110
111101000000110100011100000010110001111111110000000000011111111111100010
111100101111011000001011111101010000000000010000111100111111110011101011
111110101111111100000101111101101111110011111010111101001111111111111110
111111010000111100100000111111110000111100101011110111010000001000011111
000000010001001100001000000001100000111011111101111111000000000100010001
111100100000000000000001111111001111111100000001000000001111011011111011
111100111111100011111111111101011111010000000110111101011111111111110011
000000110000010000001001111100100000101100011110000001000001000000000101
000001101111101011110100111100100000100000000001111110101111010100001000
111101001111101011111011000001010000000000000101000011100000110100010111
111110110000011011111111111111110000001100001101111111111111111011111100
111101000000010011110111111110010000010100000001111110110001011100010101
111111001111010111111011000010011111111111110110111111011111110100000010
000000111111101011110111000000101111011111111010111100111111101011110100
111110101111000100000100111110001111001011111001111101101111011000000110
000001110000010000000100111110100000010100010011111111000000101000010011
111100100000010111111101111110100000001011111100111110001111101011111101
111101101111001111110111000010011111110100000100111101001111110011110111
111101110000110000001101111110101111101011110101111101110000001111111000
000000101111111000010001111111001111111100001000000001100000110000001101
111101000000011111111001000001100000100011111101000000100000010000000110
000001010000011011111100111111110000000111110101000000101111110000001110
111111001111101100010001111111011111111100000111111100111111010100001100
000000000000000000000001000001010000110000000110000000100000011011111110
111000111111000111110110111011100000011111111101111011101111110011110011
111001111111011100001111111110001111111111111111111101110000101011110011
111110111111110000001010000000000000011111111111111111100000011011111011
111110010000000011111110000001011111010000001001111111010000011100000101
111111010000000111110000000010100000000100000111111110110000001100010100
111101011111101000000111111100001111100011110101111111001111011111111100
111100001111000111110110000000100000011111110111000011101111101100000100
111101100000100111110110000001001111110011111000111110001111110100010001
000001010001000011111000111110110000001011111100000000000001000100001100
111111011111110011110110111111001111110011110100111111110000001000001001
111110111111111000000010111110011111110100000101111111011111111011110011
111010101111011111111101000010001111101011110110000010111111111000010110
111101011111111011110011000001101111111011111000111110000000011011111000
000010000000100000001000000010001111100011111000000001100000100000001011
111100011111101111111110000001011111011100001000111111010000000100000110
111011010000001011111111000000110000100011111111111101111111110100010011
111111001111100000001100000001111111111000000010000000010000101100000111
000000101111111100000010111110010000010100000011000000010000010111111010
111101001111010100001010111110111111011100001010111110010000100100001001
111111010000010100000111111101011111100000000100000000011111011111111011
000010111111101011110100000001101111100111111011111111100000101000000011
000010111111101100000110111101100000011011111110000000010000011111111110
111110111111011111111100111111100000010111110100111110100000011111111000
111101110000100111111101000000000000011000000000111101010000000100000111
111111110000100100001011000001001111010000000110000011000000001111111101
111101110000000111111011000010101111010100000001000000010000000011111110
000000101111011000000001111110010000001111111101000000110000011011111010
111101001111100000001000111101100000011011111101111111110000001111111101
111110000000001100000101000000111111111100000001000001000000001111111100
000010001111111111111011111111010000000111111100111101100000011000001011
111101000000100111111010000000110000100011110110111110110000000011110111
111110111111100000000010000001100000001011111011000011000000100011110111
000010000000001100000101000000100000010011110110111111111111101011110101
111110010000011000001000111111100000010100000111000010110000100000000011
000000101111101000000000000000001111011000001001111111010000100000000101
111110110000010111111100111110100000001000000010111110111111101000001000
111110011111011011110011000010000000100000001101111101110000001000000011
000000110000011011110111111101011111100111111111000000011111110111110011
000001101111100000000010111110010000011100001010111110110000100111111110
111110000000000011110110000001000000001011111011111110110000000111111001
000001001111100000000101111110001111010100001000111111001111011100010100
111111000000011011111011000010011111101011110111111101111111100011111000
000001001111100011111101111111001111101111111110000001111111101111110110
000001011111011100001000000000001111110100001010000000111111010011110101
111101001111100000000101000000110000010011110101000001110000100100000111
111110111111011000001010000000010000001000000001000001111111010000000111
111110000000100111110111111111110000001100000011000001100000000000000010
111110000000000000000100000010001111010111111010111101111111100011111010
111111010000001111111110000000101111110111110100000000010000000011110111
111010011111100011101001000100100000010111111000000001000001101011111111
111101101111010011111000111111100000001100000011111101011111000011111001
000001001101111111101001000010101111101011110100000010100000000000001011
111101101111000011110010000000101110101111110101111100001111001011110001
111111101111000100010100111101110000001100000000000001011111110011111100
000001100000110000001001000001001111100111100100000110010000000111110001
111111111111101111110010000101100001000000000101111111110000001111111111
000011010000111100011000111101001111010111101000111011101111101111110110
111110001111100100000100000001010000011111111000111111101111111111101110
000011000001011000010100111100111111001111101100000000010001011100001111
111100101111101100000011000000101111100011100101000100010000101100000001
111110010000010000001000000010001111100100000101111101111111100000000001
111101011111110011110101000010101111010011111110000001100000101100000100
000100010000011100000110000010101111111011100011001011000000111000000010
000010110001011000001000000000001111001111100000111011111111111100001101
001101000101001001011010111101001110100111011000110101101111001111111001
000011000001110100101011111110101110010011101110111111011110110011110000
000001000000011000000100000010001111100100000010000010001111011100000101
111100100001100100011100000110100000110000001001111110100001010100000110
000000101111101011110000000000001111001111110111000110000001101000011011
000110010001110000101111111101001111101111101110000000100000001011110000
111110001111101011111010111111110000000111110110111011010000010111101111
111110011111101111101100000000001111100000000001111101010000100100000100
111001111101111111111011111101111110010111110110111111001110111000001111
000000101111111111110111000010101111100011101110000110000001010100001011
000000111111101000000100111100100000001011111101111111111111110100000001
111111010000000111110100000001011111010011010101001001100001100100001100
111101100000001100001011000000111110101111110100111110110000010100000011
000001011111110000000100111111101111010100000010000001010000010111111011
111101111111011011110100111101111111000111111001111111000000010111101111
000010110001000111111110000100011111100011111001000110010000010000000101
111101011111011111110110111110111111000100000000111110010000011011111000
000000100000100011110001000000000000000111101111111110111111011011101111
000010101111010100000111111110111111101100000101111111001110111011111010
000001001110100100001011111101101110000000000100110100111111010000001111
000111100001101011110000000111110001010111111101001010110000011011111111
110111101110000111110100111100111111010111111000111100101111111000000100
000011110000001011111001000000101111100111111000001000011111110011110000
111000111111100111111110111010001111101111111111111001101111001011111010
111101010000110011110100000010010000110011110010000011010000100111101100
000001110001010111110010000010101111111100000000000101101111110111101101
111010011111001111110111111010101111111100000011111000100000001011110111
000101011111101000000100000000111110101100001011111000001110100000001101
111110011110111111110110111110101110101100000010111100101111010100001100
111101011111101011111110000000011111010111110001000010000000000011111110
001111111111101111011010010001011111000111101100001011111101001100001011
111100011111110011110011111101111111111011110001111101100000000111111000
111000111110111011101101000000000000110111011110000001010001001000000000
111010101110110111101010111000111110000111111101110010111110111000001001
000001110000101111111011111101100000001000000000111111101111011011111111
111100010001000111111011000001110001101011110110001000000000000011101110
110111111111000011110111110101111101111111111110110111001111100011111111
111110011110111011100110000100111111110111111011000011111111111111111111
111101110000111100000011000000010001101100000011111111110001010111110101
111010111111011011100011111111011110111111110110111101001110101111110011
001011001111000000000011001001011111111000100110111010100000011100100110
000001010000011011111010000010011111001111101000000110011111000111101100
111101100000011111111010000001110000010011111101000101001111100011111101
000001101111110111101010000100111111101011111001000001111111010011110001
111110111111011011110010000000100000011011111110111010001111101111110110
111101101111101100000010111101001111100000001001111111100000010100000000
000011010010001111111010000101100010010011111101001101110001100111101011
001000101111101011100100001001011111001011110010000101101111000100000110
111110101111101000000001111111110000010000000111111101101111001011111011
000010101111101100000011111110010001000100001010000000010000100100010111
111111101111110011111011000001110000010011110011000011000000010000000010
000001101111001011100010000100001110111011110001000100000000011100001101
001000110001001000000100001011110001000000000000000011100001001111100111
000001010001000011111111111101011111111111111011000011000000011000001111
000001100001001111110101000101100000000011110110111100110000011000000000
111100101101111011101011111010011111001111111110111010001111010100001010
111010001111110000001111000100000000000000000010000011100000010100000001
000101110000010011110010000100111111111011111111000010100000110000000111
111101101110100011111101000001101111001011110001000101101111110011111100
111100111110110111101111000001011111101111101000000101110000010011111110
111111010000001011111000000010001111111111110000000010010000000111111101
000011011111010111111000000100001111110111110111111110111111011111110101
000011110000111011110101001010110000000011010011000100110000000011100100
111111001111010000001111111101011110100011110100111101110000000111111100
110001111111100000011011111101101110100111101010000111000000011011101001
111000011110110011101010111001111111011011101011000110001111001111111111
111101111111110111111011111100100000011111110011111110000000001100001010
000101110001110000010010111010100000000000000000111111100000111011101111
111000101111001011101101000001001111001011110111111011011111111100000010
111100110000011100000110000001100000000111101111000011101111101011110100
000011110000101100000010000000100000010000001111000011110000100100000100
111101001111100111110110000000100000100011110001111000111110110000000110
001001000000010111011011000010011111011111100100000010011101000011111111
111111011111110011110101000011001111101000000010111011100000010111111011
111111000000100000001100000010010000011000001000000001111111101111110011
000010001111101011110110000110100001000011101101000111000001011111111001
000100010000011011101010000101011111101100000100000111010000101100000111
000011101111010111110000000001010000011011111100000001001111101000001001
000111000001011100000110000111010001111011111110000110100000111111101011
000101010000110111101100000100010000011011101010000011101111001011101011
111100000000001100000100000010010000001011111000000001110000010000000100
111001000000010000000100111010001111110000000110111101111111101111111000
000000001111001111111100000000111111101111111100111110000000000011110111
000001110000011100011011000001001110101111111101111111100001000100101011
111110010001010011111000111101101111101011110000111100001110110011011110
000011100010010000110001000010000001011000110000000011000001001100110011
000101010010110000101000111110010000001100010111000000001111110100011011
111000111101110111111100111111111111100111111100000000110001000000001111
000101010001011100010000000001000001001000011001111111100000010011111110
111101000001000000000101111101010000101111111110111110001111011111110000
000011110001011100010000111110110000001000010110000001011111110111111100
000011110000100000000011111011101110101011111000000000011111100011110010
000001110000000000001001000000000000100011110011111110000000100100000011
000101011111111000001001111111100000001011111010000100000000010100000010
001001110011010011111001000001100000001000000010111101011111011111101010
000010010000100000000011111111100000111100001100000001011111111111110011
001011000010100111111101001010100100100001010010000101010001100100100101
000111011111000111010011111111010001001000010010111001111111001111100101
000001011111010000000110000000101111110111111100000001001111011111111001
000001010000100100001000000011100000101100000011111100011111100011111011
000011011111111000011011111111101110010011111110000011100000100100010001
001001110000010011100101000101010001101000010101000101011111101000000100
000010110000100000011101000001010000010000010011111101010000010111111001
000100001111011100100011111111010000011111111111000110111111110111111111
000010001111000100010110000001011110111011101000111011001111011000000000
000001110000110000010010111111101110111111110100000000000000010000001100
111110000000011100001101000010110000110000001001111111001111110000000011
000010010010100100010110111100011110111100000100111001010000000111110011
000001000000100100001101000010010000011000010010111011000000001000010010
000000111111101100000010111101000000010000001110000000111111011011110011
111101110000100111111101111110110000001011110001111100011111011111011000
000101110000111011100001000010110000000100000101000001001111101111111100
111101100000110111110101111101010000101000001001000001010000101011110011
111111001111101100001011111111011111100100000010000001111111011011110011
111110110000001100000111000001000000001111111110111111101111110000000101
000000000000010100010011000011110000000011111111000000001110110111110011
000001011111110111101100000000111111100011110010000000011111101011101110
111111001111101100001000111111001111001111110011000010111111110111101001
111011111111000100001101000000010000011100010001000001000000101011110100
000010100000010100000001000010001111101111110101111111111111010011111100
000010011111111011111100111111011111001000000011111101010001001000000001
000001000000010111111010111111000000011111110110111101001111111011111101
111110111111111000001000000000010000000100010100111111000000001100001101
000000001111101000001101111101101111100011111011000000101111000100000111
111101110000001000001011000010110000010100000100000001000000010111111100
111101100000110000000000000011000000011000010001000000110000100100001100
111101000000001100000100111100110000000000001001000100011111110011111001
000001101111010000000001111101001111101100000001000001101111001100001101
000010011111100011110101111001011110110100001100111110100000000100010110
000000100000000000001001111110011111110000010011111110010000001100011101
000000010000100100000100000010000000100000000110000000110000010100000110
000001011111110111110110111110011111011111110010111110010000001011111101
111110101111100100000010111111100000011111111010111101111111100011111000
000010110000000011111110111100001111110100010011111111100000000000001110
000010111111111100000010000001111111010111111101111111111111110011111100
111100001111111100001000000000010000100000000001111111110000011111111100
000000010001000000000101000100100000000111111101000000111110111011110011
111110001111110111111000111110110000110011111111000011011111110111110101
000010000000100000000000000000101111010000000000111111011111101000000000
000001011111101000001100000000110000101100000100000010011111110100000110
111110011111101000000001000000000000010000001111000000000000010111111100
000000111111001111110101000001011111011011111011111110011111100000000011
000001011110110111110011111011101111000011110011111110100000100111111100
000001010000101100000111111111110001000000001010000011001111111000001011
000001100000100011110111111101001111111111111101000010011111100111111000
000001111111100111110010000011000000011100001010000010000001111000010100
000000110000000111111011111110011111000111110000111110111111000111110011
000001100000111011101010000100111111111111101011000111110000001000001111
000000101111101111111000000000100000110011111010000100011111110111110100
111010011111011011110110111101001111101011100110000001111101111011101010
111010000000000000001001111101110000011111110110000000000000010111110100
000000101111111011101101111100011110111011111100111111000000100000001000
111100011110100011111000111011101111100111111110110111101111011011110111
111110110000000111110101111111111111100000001000000011111111101011110111
111011011111011111110111111101101111011000000001111100011110101011111111
000011110000011111111000000001001111101011111001000011111111010000000001
000000111111010011110111000010100000011011101110000010100000001011110111
000010001111110011111000000010000000001000000001000100000000101100000100
111100111111001100001010000010110010011000000101001011000010011011100100
111110111111111011110011111100101111110111111001110110111110100111110000
110101111101010011100000110111101110010111111001101111001101001011010111
111111111111010111101000000100111111000111101110111111101111100111110110
000001100000000011111000000000011111100011111111000010101111111000001010
111111000000001011111110111100101111010000001011111111000001100011111100
111101111111111011101010000000111111100011111001111111001111100100001001
111101101110011100000001111101110000011000000001111010110000001011100010
000001001111011011101101000001101110111000000000111011000000000111110111
111110111111000100000001000010010000110000000100001000011111111011110001
000000001111011111100101001001110001010111100011001110111110111011001001
111100110000010011111101000011110000110000001010000100100000110111110110
111101011111000111110111111100101111000100000011111101011111111111111000
111111011111100011101001000101000000111000000010000111010010000000011011
000000001111110011110010000011110000110111110110000110100000101000001101
111111011111110011111000000001110000011000000001111101101111101011110101
111101001111000111111000000001010000111000000011000001000001011111111101
000010001111010011110101000100010000111011111110000100110001000000000110
111111011111100100000000111101111111011111111111111101100000001111111010
000110010000011000000111000100101111100111111110111101111111111011111010
000001101111100100000010111100111111110100000000000001101111110011111011
000010001111101111110001000010001111111000010001111001111111010000001011
000010001110111111111011000011011111100111111100000001011111010111101010
000010111111101111101011111111011111000111101100000011001111110111110001
111110011110101111110100000101000000010011110110111101011111100111111110
000110110000101000000110000010000000010000001100000001000000001100000101
111111001110110111110000000010110000101000000000000110010000010100010001
000000101111101000000001000001011111110111111011111101111111010111111010
000000001111001111110001000100100000011000001011000010110001100000010110
000010010000001111111101000010100001000000001001000000011111101000000010
111101101111010011111000111101110000101011110110000001001111110111110011
000010010000010111111011000010011111101000001111111110011111101000000100
111101111111000011110110000100000000111000010000111110101111011100000010
111110111111110011111101111101100000000000000100000001011111111011111111
111101111101100111001100000011111110110111100001001101000010011100001001
000100011111010011101001000001111111101000000000000010000001110000100011
000000101111110111111111111101001111101000000100000010010000100100000010
000100110001001100001011111110011111000111101001111111101111010111110110
111110010000011011111011000101010000101000011001111011001110101100000110
111011001111010111100110111110101111011011101101000010000001000100000110
111111010000101100001011000000010000010000000000111111011111101011101001
000000101111100011110100111111000000110000000101111111011111110011110111
111111110000010111100101000000111111011000001101111010011101110111101111
111111010000011000000100000011110001001000010101111100011111101011110110
000010010000001011111111000001101111100111110001111101100000010111111011
111111111111111011110011000011000001100000011010000001101111111000000111
111110001111111111101110000100101111110011111100000011000000011100001010
111111001111010011110100111111111111011011111110111110101111111000001000
111111011111101011111111000001111111100100000000111110101110111111101100
111111101111001000000001000001101111010100000011111100101111101100000010
000010010000010100000010000001001111011111111101000010010000000011111101
111010000000010100001010111011110000011000001101111101010000011000001010
000000110000001011101110111110111111101111111111111110011111011000000111
000001001111001111101011000010111111010011101100000000101111100000000111
111100010001001100000100111101110001000100001111111110110001010111111101
111011101111010011110100111110011110110111110110111010001110111111111011
111101100000100000001000111001100000011111111000111011110000111100000001
111001001110000111110001111010111110100100000000111011101111000000000100
111010110000001100001010111100100000010111111110111010100000110011111000
111101010001001011111111111101011111111100000111111101000000100000001011
111110000000010011111000111011100000000111110110000000001111110111111011
000000100000010111101101000100000000010111110000000011001111100011111101
000000000000011011110000000000001111101011111000000000111111010011111110
000001111111100111111010000100000000010111111100000000011111000111111101
000011100001100100000110000001000000101011110001111111010001010011110110
111100111111011011111010111100101111001100000001111101111111100000000010
111010111111001011110001111010101111011111101011111010100000001011111000
000100100000011111111011000010011111000100000100111101011111000111111110
111111001111010100001000000000011111101000000100000010001111111000001000
111111010000010111111111111001110000011100000001111010001111101011110111
111110011110110011101000111110001110101011101111111111001111001111111110
000011000000001011110010111111110000010011110011000011000000011011110000
111110011111110100000100111011010000100011111110111110011111101000000101
111011111110101011100101111111001111010111110101111011101111000011101110
001010010001001011100000001011001111011111110010000101111111011011101100
111111110000110011111000111100000000100111110100111111101111110011101110
111111101111110111111010111111000000011000001010000001100000011011111010
000000010001001011111011000000100000111100001000111110101111111000000010
000001110000001111110111000010111111111000000000111101100000011111110111
000010000000000011111101111101101111010111111101111110001111100111111101
111100100001111000011001111011110001100100001010000000010000010011111001
000011010001011100000101000010010000010111110010000011010000100111101110
000000111111110100000101111110101111101000000000000000000000100000001001
111111000000101000000011000011010000010011111101000000111111111111110101
111111100000100100000001000001000000001000000010111101111111110111111100
111111111111101111111011111111111111101011111001111111011111100111110001
000010101111101000000101111101100000000011111111111101110000000111110110
000001100000101011111110000000111111110100000100111100100000011111111100
000010010000111111110110111110000000000111110010000001111111111111110010
000000001111100100000001000100000000110111110100000001011111011000000001
000011111111100111110111111101011111111000000011111101011111111011111010
000011011111100011111001000000001111100000001000111101101111110011111010
000010111111111100000110111101101111100111111001111101011111010000000011
000011101111111011111000000000110000010111110011111110110000100100000011
111101100000000111110111111101101111100100001001111110010000011011110100
111111010000100111111101111110101111100111110100000000101111010111110100
000100000000011111111001000000011111110000000101111101111111001111111101
000001011111110100000011000001111111101000000110000001011111111011110110
000110010001001011110111111101001111110011110101111101000000010111111111
000101010000011100000111000011000000011100000101111110000000011111111111
000010101111100111111000000010001111100100000010000010100000001011111000
111111011111101111111010000011000000011000000001111111100000010011111111
000100010000011000000101000000110000000000000111000100000000100111111010
000000010000101111111011000000001111100011111010111110010000010111110111
111111100000011111111111111111111111011111111011000000100000000111110100
111110010000010111111000111110111111101011110110111111000000011011110001
111111011111001011110111111101000000000011101101111100111110101011110001
000010010000110100001010111111011111101000000001000010110000101000000100
000000101111100011111001000001111111011111111000111110001111110000000100
000100010000101000000001000000111111101111110110111110111111110100000100
111111111111111111111101111110111111101000000000111101101111110011111010
000000011111111011111001111111001111110000000100000000101111101100000111
000000110000100011111100111101101111011111111110000001110000100000000010
000001011111011011111011000000011111010011110010111101100000000011111000
000000000000011111111000111110001111110000000110000000011111011000000111
111100110000010011111000111111011111110011110101111011111111011100000001
111101100000010000010000111111001111111111111011000001111111101100000011
111001011110101111110011111101001110011011110011000011011111111100101010
000010110000100000010000000010011111011111111100000001100000101111111100
111111101111011000101011111111010001001111110111000010001111010000000101
000101110000100100100001111010111110100011101001000100001111111111110110
000001001111011011111010000010011111010000001110000001100000001111100111
001001110010011000011011000100101111000111100111110101001111011111100100
111110100000001100001100000001111111001011110101000000110000010011111100
001000010001010100010111111110011110100111101000110111111111111011101110
000010100000100000001011111111001110001011101011111011011110110100000101
000011011111110011111100111011101111110011111111000000001111100100000101
000010111111001111110111111000111110010011110001111100001111110111111111
001111000010001100100010111010011101010111011100111010001110100011100001
000100100000001000010110000100001111000111101001111101101111000011101010
011000110011011101101101001110010000001100010101101100111110100110111110
000101000010000000010100001000101111111011110100111000111100101011001100
000001100000100100001011111101110000101011111101000000110000011111110110
000000100010011000010010001011110001100000011100111111100000011100001111
000100001110011111110010111011001111000011100011111111011111011000100010
001101100010010000101000111111001111101111111011111100001111001011100010
111110010001000100010001000000110000111100000010111011100000100100000100
000011111111010111110111110101101110001011110001111110000000111100001110
111011101110110000001011111010001111101111110011000000100001011000111100
001001011111110100000110111011101110100111100101000000001111110111111000
000011110001000100010011000011010000010011110101111110011111100011111110
000100000000110011111110111100011101010111001001111001011110000111101000
111111010000110100000100111011011111111111100100111101011110111111110100
000000101111101100010110000000100000011011101111111110110000000000000001
000101110000110000010101000000001110111111111100111110100000110000000010
000110111111100011111010111110101110001111100111000000001110000111101011
111110100000010000000101111100101111111011111110111111001110111111110110
000001010000000011110000000000101111100011110001000001001111101111111110
111101111111100011110010111110010000100011110011000001000000011000000100
000010000000100000000010111111001111101011110101000000110000110100010101
000010110000011111111010000010010000000111110111111101101111100011101101
111111000000010011111111000000010000000000000111000001000000001000000110
111110010000010011111010000011000000010000001000111101111111100011111110
111111101111111011111000111110011111110100000001000011010000110111111111
111111111110111100001111000111010000111100000001000000011111000011101001
000011110000010100000010000010111111101011111101111101111110111111111000
111100100000001011111100000111100000100100000111000001111111001011101110
000000001111100000000010000010110000000000000100111100101111111111111001
111101000000000100000101111110000000101011111100000000100000000011111011
000001100000000000000111111101001111000000000101111100110000010100001010
000010100000001100010000111101111111110111111000111110001111100011111110
111011001110111011110110000101010000100011110001111110010000001011110110
111000101110111100011001001100000010000100011101000011011111100111100110
111001001111010000000011000110010000000000001001000101000000001111110010
111110100000101011111011111111000000000011111100000000001111110111111001
000001100000001111110001000001110000000111111000000100100000111000000110
111101101111101011110111111111101111110011111100111100010000100100001010
111100001111110100001001000001111111111000001111000000101111001111111110
000011111111011011110100111111111111101000001001000010001111110000000011
111111010000111000000000111101111111000011110011000001000000100011111110
111110110000011000011101111101001111011011111101111110010000111000001001
000010111111100100000100111101111111011111111110111101111111000000000110
000001111111101011111111111111001111001111111011000001001111110111110100
000101011111011111111010000010011110111111111111111101101111110111110001
000001011111111100000000000001101111010011111000111100101111100100000011
000001010000010111111101000000000000001111110111111101001111110011111001
000101110000010111111100000001101110111111101111111011011111000011101011
111111011111100100001100111100011111011100001001111111101111110011111101
111101100000011000000001000000001111111111111011000000101111011011111001
000010001111101100010000000000110000000000010001111011011111110000001000
000010100000101000010011000101100000010100000110000101010000001000010000
000011100001111011111110001001110001101111110000000000001111110011000111
111011101110101100010111111101010000101100110000111101010001111100100011
000111110000011000001011000100000000001100000100000111111111111011110110
000010011110100011111100000011010001000100010001111110100001100000000101
000101000000101100001011111110000000001111111101111000101111011011110101
000011110000001011101110111011011111110011011111111111110001010100011010
111110000000011100010000000011010000011000011000111100010000100000000111
000001011111111111101110000000100000010111110001000100000010000000010000
111001111111100111101110000001010001000011110111000100000001001100001011
111111010000100111110111000000010001010111111001000001110000000011111001
000000000001000011111000000010110010010100000101000011100000111011110010
111010101101111000001001000010110001111000101010000101110011011100000011
000000111111111111110100111001101111111111111001000011000001001000001110
000111101111110011011101101111101101100111000111000110110011100100010110
000001000000111011111011111111011111001111011010001100000011011011110111
111111100000000011110101000010000000001111111110000001110000010000000011
000101001111110000001010111100001110101100000111110111011110110100010011
000010100000101111111111001100010010000011111011000011100000101111011010
000001111111101100000000110111100000001011111100000101000010010111111010
000101010000001000000101111111101111111100000001111111101111110100001001
000110010000100011101101000101000010111000000001000011011111001011101000
111001110001101111100111000011100011000111011010000011010000001010011011
111101101110101000001000111110110010001000011001111101010001000111111110
000001001111111100000000111110010000100000001001111110010000011000010010
111111011111111011110011000101000001110000100011000011100000001100100001
111101010000001111111111000110100001011011111111000011000001101011110110
111110011111110100000010000001100000100011110111000011110000011111110101
111100011111111000000110111010110001010100101011111101100001101100100001
111111110000010000000011111111010001010000001101111110010001110011111010
111100110000000000000000000001100000010100000110000010111111101000010000
111110110000011100001101111000101110111000010000111101110000111000010010
111111001111110100000100111111101111110000001010000010010000010111111111
000100110001100011110100000010101111011111101101111101001111010100000111
111101100000010000011101111101010001001000011011000001000000110011110100
000111000001011000011000000101010000011100001010000100010000001100010001
000001000000110100010101000001010001111000000001111010111110010011111000
111101111110110100001001111010011110000111111000000010000000001100010000
111100111110110011101101000000000001011100011010111111110001010100001000
000010010000011100001100111111110000001100010000111011001111110000000111
111101101111011111110100000100100001010000001101111101110000100000001100
000000010000111011111011000001000000010100001111111111101111111011111011
000001000000011011110111000001010000100111111010111101010000010111101111
000011000000111011111101000000100000111100000101000000101111110011101111
111111110000111100011000000011000011110100000001111111101111110111011011
111100111111100000000000111110110000010000010010000001110001000000010011
110110001101010111001100000101010001111000010100001010000011011100010100
111110101110001011001110001000110001010011111011000001010001010000001111
111111101111100100000000000001100000010011110111000000010000001111111011
000000100000111100001011111110111110110000000011000000000000011011111001
000100000001100100010000000011001111001011111001111100101111000111100111
111010111110111011101100000100000001000100000101000111010001000111111000
000001011111110000000101000001100000010100001001111101110000001000001000
000101100001111100011000000010101111110111111110000100001111011111100110
000000100010100011111000000100100001010111001100111101011101110011101000
000001000000001100010011111101100000100000000101111111001111100111101101
000000010000000011111111111111000000111100010010111101100000001000001011
000001000000111100000001000001000000111000101001111011111111100100000001
000010110000101111111101000010000000110000000001111100100000000011111110
111111011111110011111100000000111111111111111001111111111111000100000100
111111100000011000010001111110000000111000011000111100110001000011110110
000000100000100011111010000001010001101011111011000001110000011111111111
111111001111111111111101000001101111111100001001000000111111110000001010
111110010000010011111011000100001111111000000010001000110001110000010011
111101110000100000000110111101010000000000000011000000111111111100000100
111110111111110111111111000100001111100011111011000101100000011011110001
111110100000000000000111111100101111000111111010000000100000000111111000
000101000000001000000001111111110000001100001011000110001111100011110110
000001111111001111110000111101110000001100000101000100010000101011110110
111110011111110100000101000100110000100111111101000011000000000000010010
000001100000010111110011111111111111011111111011111000001111111111110111
111101011111010100001101000001111111101111111101000011110000100100001000
000000010000001100000011111111011111000111110100000000000000010011111110
111100110000011111111100111110110000000011111100000010101111101111111001
111111111111011100000011000000110000010111111001000001000000000111110101
000001000000010111111100111111010000100011111001000011110000101000001001
000010111111011100000110111111101111001100001001000111110001000000000100
000011000000000011110110111110001111110100000001111011011111111011110101
000110100001101011111000000011010000010011101110110010111111100000000000
000010110000000100000011000001001111111011100111111100111101110011100111
000001001111101011111111111111001111011011110101000000110000010111111101
000011001111101011111111000000110000111100000010111111110000000111111111
000000010000010111111010000001110000001111110100001001000001011000001011
000101110000000000000100111111011111001111110110111011010000110000000111
111110011111110000000001111101010000000111111110111011011111111000000000
000001001111101000000111111111100000110100001011000110010010001000001011
111100111111001111110101111110111111010000000100000011101110110011100101
111111000000010111111010000010011111101111111110000110000001100100000100
000000001111110111111101000010011111110011111011000000100000011011111011
111110111111101011111111000010001111100111101100000111000001001011111011
000000101111011100001010111101100000101011110011000100100000000011110100
111111100000010100000110000001111111111100000011000001011111101011111001
000000111111111000001101111111011111101111111111111110100000001111110110
111110011111110011111000000011000000001100000010000110010000101100001010
000000010000101000000101000001011111100000000101111101011111110011111011
000001101111110111111001000011101111010111101111000000011111010111110000
111101100000010011111000111101100000011011111000111111011111100000000001
000010001111011111111101000000101110111100001010000000100000000000000010
000001111111011000000010000001001111101111111110000100110000011100000010
111111010000000111111110111101011111011100000010111111010000101100000011
000000100000110111110101000100110000100111111111000100111111110111110000
000011010000010011110110111111001111011011111101111011001111101111101101
111011110000011111111101000011010001000011111110000010011111100100000000
000001001111100000000011000010100000011100000110000001011111111111111010
000000000000011111111001000001011111110000001100111110101111010000001010
111100000000011100010000111101001111011100000011111011111110111100001111
000001111111111000000100111111100000000111111111000000111111011000001011
111111010001000000000001111111110000100011111011111111001111111100000010
111100101111100000001111000000111111101000000111000011111110110111111001
111110001111101011111000111101110000100000001011111101010000001000001111
111001100000011111110011000101010000100111110111111111101111000000001101
110110011110101100001010111111111111101000010001111110111110111000010000
000001011111010111110101111111101111011111110111000000010000000000000100
111011011110111111101100000010101111110011111111000101100000011111111010
000011000000000111111101000001001111010011110100111111010000000000000100
111011001111110000001100000001001111110000000101000010010000000100001110
111101001111111111110011000000111111100100000000000011100000110000000010
000011000001001100000101000100100000100000000111111110010000000100000100
000000000000000000001110111100101111000000010110111010111111111000001011
000000111111110011111101000011101111110000000101000010100000011011110010
111101101111110011111001111110011111110011110110000011000000011011110110
111100010000001000010011000001111111010100001010000010011111010100000001
111111110000010111111001000000101111110100001010111111001111101000001100
000001110000011000001001111101100000100111110111000000110000001100001011
000000000000000000000011111111110000111111110111000101011111110011110000
000000011111010000001011000011000000011111111110000001101111111111110111
111110111111010011110111111110001111100000001010111111101111101000000000
111101011111100111110001000000111111111100000010111010011111111011101101
111111111111010100000000000010000000000100000011111110011111001111111101
111111000000000000000011000010001111001111111101111111010000000100001000
111111111110110011100011000000011111001011110000000101000000000011111001
000011100000001000001101111110110000100100001000111110001111101000000100
000000000000101000010111111100101111010100001010000001100001000000000111
000001011111111100000000111100011111100000001111111101101110110111101101
000101010000110100011101111100000000100100001000000000010000100000001101
000001001111001100000011111100101111101111111000111110010000110100000101
000100000000110100011010111010001111110000001010000010001111111100000001
111110001111111100001101111100000000000011110100000001001111100111111000
000001100000011000001001111101110000011011110111000000100000100000000100
111111100000001011111001111110111111111011111011000000101111100100000011
111111000000000000001111111101101111011111110000000101110000110100000001
000010000000101000001111111110001111111100001110000001000000110111110001
000111110001101100111101111001000000000100001011111100110000101000000010
000101100000101100100100111101011111111000010000111101100000011100000000
111110110000100111110101111101110000011011111001000001001111100111110100
111110001111010111101001000001110000011100001011111111111111101111110101
000011000000110000001100000000000000001011100111000001111111100000010010
000011100001000100010110111111011111101000001001000010010000100111111011
111111011110011011101110111111111111100111101101000010111111100111111101
000011010000110111111111111111100000110111110001111110010000001011111000
111010001110100011110110000011101110101111100110000100010000100100001101
000011001111110100000001000000111111100011111100111111110000001011111101
000001001111000111110011000001010000001000000101000001000000010011110101
000001100000011000010101111110111110110111110010111111100000011111111010
000000010000100000010010111110101111100100001101111110000000101111110110
111100011111100000001001000000111111101111111111000000001111010111111010
111100111101110111101011111111011111010111101000000101100001000100000010
111011101111100100000010111111111111000100001011000100101111011000000011
111110000000001011111100111111101111011011110111111101001111010000001000
000001010000100000000100111100101111011100000000111100001111110000000001
111110110000001000000001111110110000001000000100111101010000101100001101
111101110000000000000000111111100000000011111000000010000000100111110111
111111110000001000000000111111000000010100001111111111101111110100010001
111101100000000100001010111101011111110100000110000000100000101011110110
000000101111100111111110111111010000100000001100111101000000100011111011
111101011111110100000110000001011111010011111010000001010000000111111100
111111100000100100001010000001110000010111111010111011100000011000000010
000000000000010011111101111101110000011100000001111100101111111000000001
111110101111101111111110111101110000011111110011111101111111010011110110
111101111111111111111000000010001111100000001000000011010000010111111001
111110011111101011111000000000000000101111111011111110110000010011110011
111111011111101011110110111111000000011100000010000000110000100100000000
000000110000001100000101000001000000010100001001111100010000101000001101
000001000000001011111011000001101111110111110111111101001111110111110010
000011000000000111111110000011000000001011111101111110001111101011110111
000011101111111000001001000010010000010000000110000000001111101011101111
111110100000100100001001111111110000010100000111000010010000001100001000
111101101111111111110110111110011111110011111001000000010000010100000101
111101010000011100001011111111101111001011110101000010011111100111101010
000011000000100100000010000011001111100000000111111100001111110000000101
111101011111010011111101000011011111101111110001000001110000100011111011
111110100000010000000010111100011111100000000000111110110000011000000010
111111010000010111110100000000010000010111110000000000110000101111100110
000000110000110011111100111110101111101111111001000000001111011000001101
111101001111110111110111111110000000100011111110000000111111101100000011
111111100000111111111000111111110000101011110100111110110000000000000110
000000011111101011111011000000110000111011110011111101111111100011110001
111111100000010111110101111111100000001100000000000001101111110111111001
111101001111001100000001000000110000000100001111000010000000100000001001
000001110000010100000000111101111111100000001001111101100000111111110110
111110101111111000001000000000011111011100000110000000101111100000001010
111101101111000111110010111110111111011011110101000000100000001011110010
111111101111001111110101111111001111101000000100111101011111001111111011
111111111110100011011111111100001110101100000110000011000000111000010100
000011000000000000000101111110111110111100001100111100000000000111111001
111101100000000011111100000000010000011111111011111111110001011100001110
000110010001111000000111000001001110111111100100000000110000001011111111
111101101111001011110110111101011110111011101011111110101111010111101101
000000110001110100001000001001100001001011111111111111001111111111110000
000001001111011100001000000010001111111111111110111101111111001111111011
000001000000010100000101000010111111100011101111111100001111110111110000
000000110000010011111101111100011111100111110001111100111111110000000110
000010101111011011110111111111100000011011110001111101000000001100000111
000011101111101011110110000001100000001011110011111100101111110000001100
000111110001110100010011000010001110110111101101111011011111001000000100
111101000000100011110001000100011111100011100011000001011111000111110011
000111010010111000100101010100100010111011101010111110111111001111101110
111100000000101011111101000101000001001111100110111110001110010011011101
111101110000001100000010000001000000000100000010000010000000011011110110
000000010000100000011001001000100001001000001011000011001111101011111111
000000111111011011101001000001101110001011101100111111101111101011111000
000011100001010011111110000110100000011011101101111110111111000011111000
111100101111100100000011000001100000000100010101111110010000101000000111
000100101111011011101111000000111111111111111001111111100000110000001100
000011010000010011100111111101101110101111110010111110000000011000101101
001000100001000111111111111111011111100111110101111100101111011011110110
111110000000110100001000000000011111010000000000111111101111101111111000
000011010000100111111111000000011110111111100111111101011111000011101110
111110010000110000000010111110010000001111110100000001011110110111110101
111110101111011011110100111100111111001111111111000000011111011100001000
111110010000111100001011000011110000001011111111111101110000000100000101
000100000000101111111111000011011111001111110000111111001111011111110000
000000000000011000000110000001111111011011111111000001101111010111111010
111110110000100111111010111100000000001100000110111101110000000011101100
000000100000000100000001000001110000010000001001111101110000000100000011
111111010000000111101011111110011111010011111111111010111111100011110110
000011010000011000000011111101011111101000001010111111101111111111111111
111100010000010000000111111111111111001111110110111011010000000000000101
000011000001010000001010111110010000011111110011111010101111010011110100
000010010000011100000101000010000000000011110100000010011111101011101101
000000110001000000000001111111000000001111110110111011001110111111111010
000010110000100000000010000000110000011000000110111101001111110111111101
000100100000111111111101111111000000010011110101111100000000001111111001
000100111111101011110011000010101111100111110010111110010000010011110001
111110101111101000000001111111111111101111110101000000111111011011110110
111111001111001011111000111101110000000011111001000000111111011011111101
000000110000110000010100111110110000000111110110111001101110011111110100
000100100000000111111000000101101111101111110011111110010000011011111011
000100010001101000101001000011110001011000000101111010001111000111110110
000011110000110011110010001000100000011011111010111011111111101011110100
000000111111111111111001111110110000010000001001111110101111101011111000
000010000000000000001101111111010000011000011100111011111111011100000010
000000011111110011101111111100101111101011111010111100101110101111110010
000001110000101000001001000001110000011000001000111111001111101111110000
000001010000111000001000111101010000101100010011111011011111111000000110
000000001111110100000100111101011111100111110111000001000000000111110101
111111010000101011110100000001011111101111110000111111101111100011111001
000001010000100100001100111100101111100111101111111010111110110111111100
