00001011111001000001101011111000111011111101111000101000000010100001101111000000
11101000000111001101111000000111111010100001110111110010001011111110100011001101
00001100000101001110001111010010001001111111100000000010000111001100101011011001
11110010000000111101010100001101111111100000111011110100000100110001100111110101
00011000111101101101001000100101111010101111010000000110110011110011011111011111
11101011000011111111010000000011111101011111000111111101111110110001110011111100
11100000000001001110010011111010111111011111110100110000000011111100101000000000
00101111111110011111001011101000111000101110010111100010000000001111111000100111
00001100111111111110011111101110000111101101000011000011001001000001010011110000
00001000111101111111100000100110111011011101110111011101001000111110101100001110
00000100000000001110001111101110000111011100001010111100001001000001100100001111
11010010000110000000010011111100110001011110000011001011000011010010010100101110
00000100000100010000100100001100000000001110000111010010000011011111000100011100
11101010001011011111010100001001010100011111110111110100101111001101001111010111
00000010111001110000110011101010111001000010111100100011000001101100011100000101
00001110000001000100000100001001111110001110100111101101000101110001001110100110
11101100000000010000000011110101111101110001111100001011111010110000000000001001
00110010110101001110100100001101111001111110110111101111111110000001111100100001
00010110101111011100111011111101111110110010010011110110111101001111100000110001
00001101000010001111001100001001111101011111100111100001001100011101110111110111
11111001110110101110000000111101111111011111101011000100110111100000111000101001
00101100111010111100101011110100110110000000010000000100000011001111110100001110
11111001000010100001111101000110000011111011110111011001000000001110101100000110
00000101000000100000100100101101110111101101110011100010111110111111101100101101
00101111000001111101101111111101110110011111101111111011111011110000101100000101
11100100111101110001101100010101111000000001000100011000111001100000101011100001
00100011000101101100110011111110111110000000010000000000000100111101000111111001
11100101000001011101101000001110001100111111110000010000111100011101000100101011
11101110111011100011000011110100110111010010011111011011111110010000001000010010
00001111110111110000111111001011111110010000100100100000110000000001001100100000
00000100111000110010111000010001111010010001010100010011110100111110111011101010
11100111111100010000010100011010110110100001101000001101000010011101110111010010
11110010111101100001110011011111111010111110110000001110001001000000111011101010
00111010000100111111100100001001110101111110111111100010001001101100101100100100
11110001000000001110100000100011111111111101100100000100000101011100011000100010
11111101111100100001111011110111110111010011000011100000111111101110100111111111
00010011111101100010010100001010001001000000000111101011111111011110010010101101
11101100111110110000101011010011000001100000101100101010000000111100011100000001
11010000000101000000001100111011111010001101110011101110111110000000001000100101
00011101000000011110010011001101111101110010011100001010111011101101100100010001
00110100111110110001001111100110000000011110010100010100111011111011101000001011
11001111000101011110011000011100000101011110111111110100000001010000010111110011
00010011111110001110110111001001010001000001110111110010111000000001011111010111
00000110000010100010011011101100000101001011110111101000001001011100111111111011
00011101000101111101111111011011111010011111010100100000111001000000110011000010
11101011000001000010100011111100111101100001101011011111000000001101111011111001
11101110110001000001101000001000000000110001001111101100110110011111011000010111
00010110000010100010001100010111111000011110100011011111000001000010101111001011
11100101111101110000110111101111001100111110111000100110111100101110101000010000
11100110000001100100000111100001000111111111000000001111111100111101111000010010
11111111111001111110110111000011000011000000011100101100000000110000110011111101
00001010000000000010001011011010111100001110011011111101000011101111110011111001
00000100000001101110111000010001000001011110101011110000000000000000010011111000
00011001000110111101000011111011110100101111010100010100111100110010011010110110
11110100111011100001001011111001001000101110001100101010111011011110101000100101
11100111111101100001001100110001111000100001111011101010111100111110101111011110
11110110000011010000111011001001010000010010101111011011111100101101010100100000
11110010111111011110001110110110000001110010001100010011000010110000100100001010
00001110000011000000011111011100000010001111011100000001000111011100011100010001
11100111000001001100100111100101000111000011001000010100001001101101000011101010
11101100111110110001110011000011000011110000000000000100001010111101100011110110
11000000111101000001100000001000001001101101011000011000000000011111110111110001
00101011000011101111011100100111111011011111011011100100111101101110010111110010
00010010110110000000101100010110000001111101001011011010000001001110111000110110
11011011000001111111000000101011111110110001110011000100000011011111100100000001
00100100000010010100011111110001111101101101100111011011000101001101110100000011
00000100000101101110010111011111110100110001101000001010110100111111101000111011
11101000111101001101100000001101111011010001110111100000001010001110001011111110
11111110111000101111011000011000101110010000010011111111000000101111001100000111
11011101110111001111111011001011001010100000001100101010000001000010111111010111
11111011000010100100101111100110111110101111000111101010000000101101110000001100
11101011111110010001000100010101111110000000100011101011111111111110100111011010
11011011000010111110111100011001000010100010001011010010000001111111101100000000
11111100000110001101111100000110001000001101100011100110000101101110111011101110
11011001111111001101111111111101000011000001101000001011111011110000101111101010
11100001111110001101011100011010000000110010011111111001000011001110111100001111
00100111111100011101000111000011000000010010011100101111000001101100100000011010
11100101000000100000111011111010111000000010000111111101000101011100111000001001
00000000000010001101100011101011111001000010101000100110110000010000000000001111
11110010111010010000101100100100111100110000111011101100111000010000101011100011
11010010000110101110111000101101000010111111011111101111111101001111111011101011
00101001000101111101101111100100000010110010000100001100111110001011010000001000
11111110000011100000100111011100111010011111011000001111111100100011001011101111
10110101000100111110100111000100110011110001000001000001111001110011011100001110
11000011000001000000001100010101110010011011010100001101111110000001110000101101
10110001000110001011101011100111111011010011000101000100110111110001111011111011
11101001111011010001001000010000111000000010110011010101111101101110110000100000
11111010000001010001001000000000110100100010001011100001111101001110010000000000
11011100111111011110100101000010110011100001111111110100000010111111011110111110
11110001000000111110000111111001000110100010010111101000111011100000011100011100
11110010000110000011011011110101110111101111110000010111111000001111101111101001
11111011000101110010011011111111111111010000101011011110000111111100101011001111
11001110000010111101110100000101111011100000111011100010111100010000111100001010
11110011110111000001110111010111000100111110011000101101101110110001100100011110
11100001111001010011001111110000110110000001101000010000000101111110010000000010
11101101000011000011010111101101110010011101100100001000111111111111100100011000
11011011111100100010011111010011000100101101101100001011001110010000010111101100
11111110000010110001100111111000111010010000100100000011111100011110100000101010
11011100111101111110111100010001000101110010001011110110000000101110001111011010
11101111000000111111101000100110111111100001010011010011000011111111010111110100
11111010110100100000110111110111000010100010101111101010000010010010111111001000
11111011000001100100010111001010111100100000111100001001000100001101001100000101
11111110111100000001111100010101111011010010010000000000111010111110110111011000
11111101111000101111001000001001000001111111100100100110101110110000101000100011
11111000000100010000001010111110111011010010101011111010000001111111010011100111
00100010000100000010000011101101111011101100110100000111111100100010011010110010
00010011000001100010000000000101110110011110101111101110000011000011001110111011
11100000111001011111101100100111111011000010100011111011000000001111000011110101
11011011001000110001101100101000111110101101001011011110111110111111100011110001
00011101111000101100011100000010111000000000111011100001111100100001101000011001
11011100111100101110111100101000111111000011011111110101111000101111100011110011
10111100110100000000001100010110001110110001010111001111000000000010000000000101
00001100110011110001100000000010111100001111100000011100100111000011000000100010
00111001110111011110111100010110111100000001001100101101111110101011101011111101
11100100000001000000100000011011000010001110110111110010000011000001111111100001
11000000000001111110011000001101000000110000011100011111000001101110000100000010
11111110000101101101100111011001111100000011000011111110000110011110110111110001
11101001001000000011001011111111111100111011011011101001000100011111011000011010
00000111000010101111001111000111000101000010010000000101111101011111110111111100
11111111110001011100111111111010001011111110010000001110000111011110000000100000
11001011111100000001111011011011010011111110001011101111111111000000010101000001
00001000111010000010101111010010000100011110010100100010101010100001100100000011
11011110000100000000011111110010000100011011100000000010001010111111010111101101
11111010000010000011011111000101000010111111111011111101001001111100111111101001
00001110111101011110101011110011001110110000010011110100100111000001100000010111
00011010111011010000001100001101000001101111111000010100000000001110010011001010
11010011001010010000000000011101110111111111110111110100110101010000111111111110
00001110110010010000100000101011000111001110011111011111111010101110100011111011
